node {
  name: "in_0"
  op: "Const"
  attr {
    key: "dtype"
    value {
      type: DT_INT32
    }
  }
  attr {
    key: "value"
    value {
      tensor {
        dtype: DT_INT32
        tensor_shape {
          dim {
            size: 1
          }
          dim {
            size: 16
          }
          dim {
            size: 16
          }
          dim {
            size: 3
          }
        }
        tensor_content: "\007\000\000\000\002\000\000\000\t\000\000\000\004\000\000\000\003\000\000\000\003\000\000\000\010\000\000\000\003\000\000\000\004\000\000\000\002\000\000\000\001\000\000\000\004\000\000\000\001\000\000\000\001\000\000\000\006\000\000\000\010\000\000\000\006\000\000\000\010\000\000\000\001\000\000\000\005\000\000\000\001\000\000\000\001\000\000\000\007\000\000\000\004\000\000\000\004\000\000\000\004\000\000\000\010\000\000\000\t\000\000\000\006\000\000\000\006\000\000\000\010\000\000\000\007\000\000\000\t\000\000\000\005\000\000\000\006\000\000\000\006\000\000\000\007\000\000\000\004\000\000\000\005\000\000\000\005\000\000\000\010\000\000\000\002\000\000\000\006\000\000\000\010\000\000\000\002\000\000\000\007\000\000\000\003\000\000\000\006\000\000\000\007\000\000\000\006\000\000\000\006\000\000\000\003\000\000\000\004\000\000\000\t\000\000\000\002\000\000\000\003\000\000\000\005\000\000\000\007\000\000\000\010\000\000\000\004\000\000\000\002\000\000\000\001\000\000\000\007\000\000\000\006\000\000\000\t\000\000\000\005\000\000\000\t\000\000\000\t\000\000\000\003\000\000\000\001\000\000\000\002\000\000\000\003\000\000\000\002\000\000\000\005\000\000\000\000\000\000\000\003\000\000\000\004\000\000\000\010\000\000\000\007\000\000\000\007\000\000\000\t\000\000\000\003\000\000\000\003\000\000\000\000\000\000\000\005\000\000\000\007\000\000\000\002\000\000\000\002\000\000\000\002\000\000\000\t\000\000\000\007\000\000\000\010\000\000\000\005\000\000\000\007\000\000\000\005\000\000\000\t\000\000\000\006\000\000\000\003\000\000\000\007\000\000\000\010\000\000\000\010\000\000\000\000\000\000\000\003\000\000\000\006\000\000\000\t\000\000\000\007\000\000\000\001\000\000\000\003\000\000\000\001\000\000\000\000\000\000\000\004\000\000\000\001\000\000\000\000\000\000\000\002\000\000\000\010\000\000\000\003\000\000\000\007\000\000\000\005\000\000\000\005\000\000\000\000\000\000\000\003\000\000\000\002\000\000\000\003\000\000\000\004\000\000\000\t\000\000\000\t\000\000\000\003\000\000\000\003\000\000\000\000\000\000\000\001\000\000\000\001\000\000\000\005\000\000\000\000\000\000\000\005\000\000\000\001\000\000\000\001\000\000\000\007\000\000\000\001\000\000\000\004\000\000\000\006\000\000\000\003\000\000\000\001\000\000\000\004\000\000\000\001\000\000\000\t\000\000\000\001\000\000\000\000\000\000\000\005\000\000\000\003\000\000\000\006\000\000\000\001\000\000\000\001\000\000\000\001\000\000\000\010\000\000\000\005\000\000\000\007\000\000\000\t\000\000\000\000\000\000\000\000\000\000\000\004\000\000\000\006\000\000\000\003\000\000\000\002\000\000\000\006\000\000\000\001\000\000\000\007\000\000\000\005\000\000\000\006\000\000\000\004\000\000\000\t\000\000\000\000\000\000\000\002\000\000\000\004\000\000\000\000\000\000\000\002\000\000\000\000\000\000\000\002\000\000\000\006\000\000\000\006\000\000\000\005\000\000\000\010\000\000\000\007\000\000\000\t\000\000\000\000\000\000\000\003\000\000\000\010\000\000\000\002\000\000\000\003\000\000\000\006\000\000\000\004\000\000\000\002\000\000\000\000\000\000\000\006\000\000\000\006\000\000\000\007\000\000\000\005\000\000\000\007\000\000\000\010\000\000\000\006\000\000\000\t\000\000\000\007\000\000\000\006\000\000\000\001\000\000\000\003\000\000\000\000\000\000\000\010\000\000\000\006\000\000\000\006\000\000\000\002\000\000\000\007\000\000\000\007\000\000\000\002\000\000\000\001\000\000\000\004\000\000\000\002\000\000\000\000\000\000\000\000\000\000\000\001\000\000\000\003\000\000\000\002\000\000\000\002\000\000\000\t\000\000\000\001\000\000\000\004\000\000\000\007\000\000\000\006\000\000\000\000\000\000\000\010\000\000\000\010\000\000\000\002\000\000\000\t\000\000\000\004\000\000\000\003\000\000\000\001\000\000\000\000\000\000\000\007\000\000\000\000\000\000\000\000\000\000\000\002\000\000\000\002\000\000\000\003\000\000\000\007\000\000\000\001\000\000\000\004\000\000\000\t\000\000\000\003\000\000\000\007\000\000\000\005\000\000\000\004\000\000\000\010\000\000\000\001\000\000\000\001\000\000\000\003\000\000\000\005\000\000\000\005\000\000\000\010\000\000\000\001\000\000\000\005\000\000\000\005\000\000\000\004\000\000\000\003\000\000\000\004\000\000\000\002\000\000\000\003\000\000\000\t\000\000\000\002\000\000\000\000\000\000\000\006\000\000\000\003\000\000\000\t\000\000\000\002\000\000\000\003\000\000\000\007\000\000\000\010\000\000\000\003\000\000\000\010\000\000\000\001\000\000\000\006\000\000\000\000\000\000\000\000\000\000\000\005\000\000\000\t\000\000\000\006\000\000\000\t\000\000\000\000\000\000\000\004\000\000\000\010\000\000\000\003\000\000\000\005\000\000\000\003\000\000\000\004\000\000\000\000\000\000\000\006\000\000\000\t\000\000\000\005\000\000\000\004\000\000\000\t\000\000\000\t\000\000\000\007\000\000\000\003\000\000\000\002\000\000\000\t\000\000\000\000\000\000\000\000\000\000\000\t\000\000\000\003\000\000\000\002\000\000\000\004\000\000\000\010\000\000\000\005\000\000\000\003\000\000\000\t\000\000\000\006\000\000\000\t\000\000\000\002\000\000\000\010\000\000\000\007\000\000\000\002\000\000\000\001\000\000\000\010\000\000\000\001\000\000\000\005\000\000\000\t\000\000\000\003\000\000\000\002\000\000\000\007\000\000\000\007\000\000\000\007\000\000\000\000\000\000\000\006\000\000\000\000\000\000\000\002\000\000\000\010\000\000\000\000\000\000\000\004\000\000\000\007\000\000\000\006\000\000\000\005\000\000\000\001\000\000\000\005\000\000\000\010\000\000\000\002\000\000\000\001\000\000\000\006\000\000\000\001\000\000\000\003\000\000\000\004\000\000\000\004\000\000\000\005\000\000\000\010\000\000\000\003\000\000\000\001\000\000\000\006\000\000\000\010\000\000\000\001\000\000\000\004\000\000\000\010\000\000\000\004\000\000\000\000\000\000\000\001\000\000\000\004\000\000\000\007\000\000\000\000\000\000\000\000\000\000\000\002\000\000\000\010\000\000\000\t\000\000\000\005\000\000\000\007\000\000\000\005\000\000\000\010\000\000\000\010\000\000\000\002\000\000\000\007\000\000\000\006\000\000\000\005\000\000\000\001\000\000\000\004\000\000\000\010\000\000\000\t\000\000\000\010\000\000\000\010\000\000\000\000\000\000\000\007\000\000\000\001\000\000\000\003\000\000\000\005\000\000\000\006\000\000\000\005\000\000\000\002\000\000\000\000\000\000\000\000\000\000\000\t\000\000\000\003\000\000\000\000\000\000\000\005\000\000\000\000\000\000\000\000\000\000\000\010\000\000\000\004\000\000\000\005\000\000\000\000\000\000\000\010\000\000\000\001\000\000\000\006\000\000\000\t\000\000\000\001\000\000\000\003\000\000\000\007\000\000\000\000\000\000\000\006\000\000\000\002\000\000\000\000\000\000\000\000\000\000\000\000\000\000\000\002\000\000\000\006\000\000\000\005\000\000\000\004\000\000\000\005\000\000\000\t\000\000\000\004\000\000\000\002\000\000\000\006\000\000\000\000\000\000\000\002\000\000\000\001\000\000\000\003\000\000\000\t\000\000\000\005\000\000\000\006\000\000\000\005\000\000\000\010\000\000\000\000\000\000\000\002\000\000\000\001\000\000\000\t\000\000\000\002\000\000\000\005\000\000\000\002\000\000\000\007\000\000\000\003\000\000\000\005\000\000\000\006\000\000\000\005\000\000\000\005\000\000\000\007\000\000\000\000\000\000\000\004\000\000\000\004\000\000\000\003\000\000\000\004\000\000\000\t\000\000\000\000\000\000\000\003\000\000\000\000\000\000\000\005\000\000\000\004\000\000\000\007\000\000\000\010\000\000\000\003\000\000\000\000\000\000\000\007\000\000\000\001\000\000\000\006\000\000\000\001\000\000\000\007\000\000\000\010\000\000\000\004\000\000\000\002\000\000\000\004\000\000\000\005\000\000\000\001\000\000\000\t\000\000\000\004\000\000\000\t\000\000\000\t\000\000\000\003\000\000\000\007\000\000\000\004\000\000\000\007\000\000\000\000\000\000\000\002\000\000\000\001\000\000\000\005\000\000\000\002\000\000\000\003\000\000\000\001\000\000\000\006\000\000\000\010\000\000\000\010\000\000\000\005\000\000\000\t\000\000\000\007\000\000\000\006\000\000\000\000\000\000\000\002\000\000\000\004\000\000\000\003\000\000\000\007\000\000\000\001\000\000\000\005\000\000\000\004\000\000\000\001\000\000\000\000\000\000\000\010\000\000\000\000\000\000\000\000\000\000\000\006\000\000\000\005\000\000\000\000\000\000\000\001\000\000\000\007\000\000\000\t\000\000\000\004\000\000\000\006\000\000\000\005\000\000\000\t\000\000\000\000\000\000\000\t\000\000\000\002\000\000\000\005\000\000\000\000\000\000\000\003\000\000\000\007\000\000\000\002\000\000\000\004\000\000\000\007\000\000\000\010\000\000\000\000\000\000\000\005\000\000\000\007\000\000\000\000\000\000\000\007\000\000\000\002\000\000\000\004\000\000\000\000\000\000\000\006\000\000\000\002\000\000\000\006\000\000\000\t\000\000\000\010\000\000\000\004\000\000\000\005\000\000\000\000\000\000\000\002\000\000\000\005\000\000\000\007\000\000\000\t\000\000\000\005\000\000\000\007\000\000\000\002\000\000\000\000\000\000\000\007\000\000\000\t\000\000\000\001\000\000\000\003\000\000\000\010\000\000\000\010\000\000\000\006\000\000\000\007\000\000\000\007\000\000\000\010\000\000\000\002\000\000\000\000\000\000\000\010\000\000\000\004\000\000\000\007\000\000\000\006\000\000\000\t\000\000\000\000\000\000\000\005\000\000\000\t\000\000\000\t\000\000\000\004\000\000\000\t\000\000\000\000\000\000\000\005\000\000\000\000\000\000\000\006\000\000\000\004\000\000\000\007\000\000\000\004\000\000\000\t\000\000\000\002\000\000\000\004\000\000\000\t\000\000\000\007\000\000\000\t\000\000\000\000\000\000\000\000\000\000\000\004\000\000\000\002\000\000\000\000\000\000\000\005\000\000\000\t\000\000\000\006\000\000\000\t\000\000\000\003\000\000\000\004\000\000\000\000\000\000\000\002\000\000\000\t\000\000\000\002\000\000\000\005\000\000\000\001\000\000\000\007\000\000\000\006\000\000\000\001\000\000\000\003\000\000\000\007\000\000\000\t\000\000\000\010\000\000\000\005\000\000\000\002\000\000\000\001\000\000\000\001\000\000\000\004\000\000\000\006\000\000\000\000\000\000\000\t\000\000\000\010\000\000\000\006\000\000\000\007\000\000\000\001\000\000\000\t\000\000\000\004\000\000\000\002\000\000\000\000\000\000\000\007\000\000\000\010\000\000\000\001\000\000\000\002\000\000\000\004\000\000\000\006\000\000\000\t\000\000\000\001\000\000\000\002\000\000\000\t\000\000\000\004\000\000\000\t\000\000\000\007\000\000\000\t\000\000\000\002\000\000\000\006\000\000\000\004\000\000\000\003\000\000\000\004\000\000\000\004\000\000\000\005\000\000\000\006\000\000\000\005\000\000\000\003\000\000\000\t\000\000\000\005\000\000\000\006\000\000\000\002\000\000\000\t\000\000\000\006\000\000\000\001\000\000\000\007\000\000\000\006\000\000\000\010\000\000\000\005\000\000\000\002\000\000\000\007\000\000\000\010\000\000\000\006\000\000\000\t\000\000\000\006\000\000\000\005\000\000\000\003\000\000\000\007\000\000\000\005\000\000\000\006\000\000\000\010\000\000\000\002\000\000\000\003\000\000\000\003\000\000\000\005\000\000\000\005\000\000\000\004\000\000\000\005\000\000\000\006\000\000\000\006\000\000\000\001\000\000\000\006\000\000\000\004\000\000\000\001\000\000\000\002\000\000\000\003\000\000\000\001\000\000\000\003\000\000\000\010\000\000\000\007\000\000\000\004\000\000\000\000\000\000\000\000\000\000\000\000\000\000\000\000\000\000\000\001\000\000\000\003\000\000\000\004\000\000\000\007\000\000\000\000\000\000\000\001\000\000\000\t\000\000\000\000\000\000\000\010\000\000\000\010\000\000\000\000\000\000\000\006\000\000\000\003\000\000\000\002\000\000\000\007\000\000\000\001\000\000\000\005\000\000\000\002\000\000\000\005\000\000\000\007\000\000\000\000\000\000\000\010\000\000\000\002\000\000\000\003\000\000\000\007\000\000\000\007\000\000\000\010\000\000\000\007\000\000\000\002\000\000\000\004\000\000\000\007\000\000\000\005\000\000\000\007\000\000\000\003\000\000\000\000\000\000\000\002\000\000\000\003\000\000\000\010\000\000\000\004\000\000\000\003\000\000\000\t\000\000\000\005\000\000\000\006\000\000\000\003\000\000\000\004\000\000\000\003\000\000\000\000\000\000\000\001\000\000\000\010\000\000\000\002\000\000\000\007\000\000\000\006\000\000\000\000\000\000\000\002\000\000\000\007\000\000\000\001\000\000\000\001\000\000\000\001\000\000\000\004\000\000\000\006\000\000\000\004\000\000\000\010\000\000\000\007\000\000\000\001\000\000\000\004\000\000\000\002\000\000\000\004\000\000\000\004\000\000\000"
      }
    }
  }
}
node {
  name: "in_0/read"
  op: "Identity"
  input: "in_0"
  attr {
    key: "T"
    value {
      type: DT_INT32
    }
  }
  attr {
    key: "_class"
    value {
      list {
        s: "loc:@in_0"
      }
    }
  }
}
node {
  name: "MaxPoolWithArgmax"
  op: "MaxPoolWithArgmax"
  input: "in_0/read"
  attr {
    key: "T"
    value {
      type: DT_INT32
    }
  }
  attr {
    key: "Targmax"
    value {
      type: DT_INT64
    }
  }
  attr {
    key: "include_batch_in_index"
    value {
      b: true
    }
  }
  attr {
    key: "ksize"
    value {
      list {
        i: 1
        i: 1
        i: 1
        i: 1
      }
    }
  }
  attr {
    key: "padding"
    value {
      s: "SAME"
    }
  }
  attr {
    key: "strides"
    value {
      list {
        i: 1
        i: 1
        i: 1
        i: 1
      }
    }
  }
}
library {
}
