node {
  name: "in_0"
  op: "Const"
  attr {
    key: "dtype"
    value {
      type: DT_DOUBLE
    }
  }
  attr {
    key: "value"
    value {
      tensor {
        dtype: DT_DOUBLE
        tensor_shape {
          dim {
            size: 2
          }
          dim {
            size: 5
          }
          dim {
            size: 5
          }
          dim {
            size: 3
          }
        }
        tensor_content: "0m4\347\376y\315?\344\033;\004\236p\351?\026..t\357%\352? \306G>\322\023\247?\230\303\330E)\235\327?,5\313k\013\350\345?\334m\034\311\255s\321?0\024\236\222\260\272\321?@\321\340\331\240{\316?v|\234\234\223o\356?\244&\\\214\314W\332?\270\376rL\357\224\331?\030\216\353R\253\023\332?*A<\365%\024\344?h\014\326CH\250\351?0\320Y{\256\\\261?\366\226\304\200\016\350\343?@cr\031B\026\323?\300Q\006<\213\200\303?\014\377 \310\035\271\320?\300\325\277\177]\302\347?\270\337\237\302\321P\343?\256L\224~H]\351?0\243.\031\266\256\342?\200B\250\257\316j\301?\304\372\266\312\352\225\332?D\320\255\371\013B\327?\364\025&\270p\360\327?H:\241v\n\272\312?0-} \201!\323?l2\013\247;|\331?\320r}\'\013\372\341?\006u\364aS@\347?P6<\211\270\337\273?\024\340\006`\267\262\322?t\222JV\310\'\325?\264/\177\232\"]\322?\242\037L\006\215=\345?\270\376\302\274\332\310\323?R\2100\375\212\314\355?\300;\026W\321\210\230?\260?t#\314\203\322?\366=D:{\005\342?p_\013\2335\315\356?\344U\370\034\372\317\332? l1N\344\252\330?\354\327\003\223\206\215\321?^C\326M\353\234\345?\326\333u\025\2449\354?\264\000\334Z\177\326\353?\244\341\253\326!\272\345?\320\336\312`\255\005\311?\244u\220o\266\033\324?V\010\201\267\276\271\351?$\253\324_o3\356?\264:\260\357i\003\335?\300[\'7L8\256?02UU\205\214\265?\240\255\276\263r+\257? \303\207\022\3446\334?\220\032\360l\364(\324?\030\374\036.\217W\355?\340!;ay\034\257?\312\255)\371\227\333\346?F\233`e\300\335\343?\264>\261\354\324\345\331?\212v\025\026\265o\342?|\036\036F\364}\330?\034\203\363\362\364\204\322?\000:\260e\"\372\230?F\316\345\330\2577\343?\356uN6<b\355?6\216\263\234\243N\351?\306b\204\305\260\200\342?\210\213\262X/J\331?(\352\313\203=\217\312?\310\3327\231\362\007\345?\210\234<\035}\241\313?\224\'0\201\363V\344?\240\260-3\3655\345?\002\247{\313\r\256\346?\360\245\253nKS\320?RB\226\240W\356\357?\334\027\006 \033\036\343?|\261\014\315\343\257\326?H\003\272\351,\177\346?\374\251\352\364\rP\342?\\\256\353\375\311\374\350?\020m\231th\217\332?\300}|\030\250\265\237?\334A\302\326\350\177\331?@\n\245\305\275\361\240?p\317\235e\034\037\323?\206\237p\3350%\351?x\3032;\342<\322?\000\357\230o\027\375\233?\200\033\020\033\016%\242?\254Z1E\224\006\323?\320V-\2554\246\323?d\251hU{W\325?\264H\366\212K\254\354?\322\212\217\357\217\214\347?\\W_[\345]\340?\020K\010\007\263,\334?ZL\243\251u\244\347?`R\204\344W\225\356?\020\274\270b\\\343\336?\300sQ\225M)\251?\372!v\373\244\361\357?x\275&#-I\327?\246?\2637\024\022\357?\350\341(\013:\222\344?\000\333\310{\236\215\303?\314:\221\356E\036\344?L\351\322\333U\t\357?\000\330-C%\327\242?pxI\323\260\232\274?\346\231\217aE\257\346?8\244\357\347\264\020\340?\3200a\203\002$\304?\240\314\006\245i\004\243?d \\\270\326\263\346?R\272\022\220_\230\347?F\377&\317\272\010\354?h\315\355\202|\001\340?\264\243)&>>\330?Zo\010\013\2722\347?\340\222\035)\223\344\271?\350\200\257\270\371.\314?\360\342\306,\242\352\357?@\352\266\225\320H\260?\\\323\224\314\272\017\332?L)\032o\362\342\352?\210\005\200I\302\242\320?8\t\261W\213p\305?\356\305|9\260\235\344?\3000s\315\207\245\350?\010\2675o\016\201\327?\350!b1\016u\351?\200I9\345\234\037\227?\356\353\226\000\222e\355?Nu\267<\314d\356?\000\320\227\022y\026\357?D-\2041\013w\337?\262\343\376\300\032\375\340?@h\260\013\231\214\242?F\202\272\242\264\245\356?\010\241\3735\322\355\341?\006\'\2418\273\014\344?B1\365\277\032\362\340?"
      }
    }
  }
}
node {
  name: "in_0/read"
  op: "Identity"
  input: "in_0"
  attr {
    key: "T"
    value {
      type: DT_DOUBLE
    }
  }
  attr {
    key: "_class"
    value {
      list {
        s: "loc:@in_0"
      }
    }
  }
}
node {
  name: "in_1"
  op: "Const"
  attr {
    key: "dtype"
    value {
      type: DT_INT32
    }
  }
  attr {
    key: "value"
    value {
      tensor {
        dtype: DT_INT32
        tensor_shape {
          dim {
            size: 2
          }
        }
        tensor_content: "\t\000\000\000\t\000\000\000"
      }
    }
  }
}
node {
  name: "in_1/read"
  op: "Identity"
  input: "in_1"
  attr {
    key: "T"
    value {
      type: DT_INT32
    }
  }
  attr {
    key: "_class"
    value {
      list {
        s: "loc:@in_1"
      }
    }
  }
}
node {
  name: "ResizeNearestNeighbor"
  op: "ResizeNearestNeighbor"
  input: "in_0/read"
  input: "in_1/read"
  attr {
    key: "T"
    value {
      type: DT_DOUBLE
    }
  }
  attr {
    key: "align_corners"
    value {
      b: false
    }
  }
  attr {
    key: "half_pixel_centers"
    value {
      b: false
    }
  }
}
library {
}
