node {
  name: "in_0"
  op: "Const"
  attr {
    key: "dtype"
    value {
      type: DT_DOUBLE
    }
  }
  attr {
    key: "value"
    value {
      tensor {
        dtype: DT_DOUBLE
        tensor_shape {
          dim {
            size: 1
          }
          dim {
            size: 16
          }
          dim {
            size: 16
          }
          dim {
            size: 3
          }
        }
        tensor_content: "0m4\347\376y\315?\344\033;\004\236p\351?\026..t\357%\352? \306G>\322\023\247?\230\303\330E)\235\327?,5\313k\013\350\345?\334m\034\311\255s\321?0\024\236\222\260\272\321?@\321\340\331\240{\316?v|\234\234\223o\356?\244&\\\214\314W\332?\270\376rL\357\224\331?\030\216\353R\253\023\332?*A<\365%\024\344?h\014\326CH\250\351?0\320Y{\256\\\261?\366\226\304\200\016\350\343?@cr\031B\026\323?\300Q\006<\213\200\303?\014\377 \310\035\271\320?\300\325\277\177]\302\347?\270\337\237\302\321P\343?\256L\224~H]\351?0\243.\031\266\256\342?\200B\250\257\316j\301?\304\372\266\312\352\225\332?D\320\255\371\013B\327?\364\025&\270p\360\327?H:\241v\n\272\312?0-} \201!\323?l2\013\247;|\331?\320r}\'\013\372\341?\006u\364aS@\347?P6<\211\270\337\273?\024\340\006`\267\262\322?t\222JV\310\'\325?\264/\177\232\"]\322?\242\037L\006\215=\345?\270\376\302\274\332\310\323?R\2100\375\212\314\355?\300;\026W\321\210\230?\260?t#\314\203\322?\366=D:{\005\342?p_\013\2335\315\356?\344U\370\034\372\317\332? l1N\344\252\330?\354\327\003\223\206\215\321?^C\326M\353\234\345?\326\333u\025\2449\354?\264\000\334Z\177\326\353?\244\341\253\326!\272\345?\320\336\312`\255\005\311?\244u\220o\266\033\324?V\010\201\267\276\271\351?$\253\324_o3\356?\264:\260\357i\003\335?\300[\'7L8\256?02UU\205\214\265?\240\255\276\263r+\257? \303\207\022\3446\334?\220\032\360l\364(\324?\030\374\036.\217W\355?\340!;ay\034\257?\312\255)\371\227\333\346?F\233`e\300\335\343?\264>\261\354\324\345\331?\212v\025\026\265o\342?|\036\036F\364}\330?\034\203\363\362\364\204\322?\000:\260e\"\372\230?F\316\345\330\2577\343?\356uN6<b\355?6\216\263\234\243N\351?\306b\204\305\260\200\342?\210\213\262X/J\331?(\352\313\203=\217\312?\310\3327\231\362\007\345?\210\234<\035}\241\313?\224\'0\201\363V\344?\240\260-3\3655\345?\002\247{\313\r\256\346?\360\245\253nKS\320?RB\226\240W\356\357?\334\027\006 \033\036\343?|\261\014\315\343\257\326?H\003\272\351,\177\346?\374\251\352\364\rP\342?\\\256\353\375\311\374\350?\020m\231th\217\332?\300}|\030\250\265\237?\334A\302\326\350\177\331?@\n\245\305\275\361\240?p\317\235e\034\037\323?\206\237p\3350%\351?x\3032;\342<\322?\000\357\230o\027\375\233?\200\033\020\033\016%\242?\254Z1E\224\006\323?\320V-\2554\246\323?d\251hU{W\325?\264H\366\212K\254\354?\322\212\217\357\217\214\347?\\W_[\345]\340?\020K\010\007\263,\334?ZL\243\251u\244\347?`R\204\344W\225\356?\020\274\270b\\\343\336?\300sQ\225M)\251?\372!v\373\244\361\357?x\275&#-I\327?\246?\2637\024\022\357?\350\341(\013:\222\344?\000\333\310{\236\215\303?\314:\221\356E\036\344?L\351\322\333U\t\357?\000\330-C%\327\242?pxI\323\260\232\274?\346\231\217aE\257\346?8\244\357\347\264\020\340?\3200a\203\002$\304?\240\314\006\245i\004\243?d \\\270\326\263\346?R\272\022\220_\230\347?F\377&\317\272\010\354?h\315\355\202|\001\340?\264\243)&>>\330?Zo\010\013\2722\347?\340\222\035)\223\344\271?\350\200\257\270\371.\314?\360\342\306,\242\352\357?@\352\266\225\320H\260?\\\323\224\314\272\017\332?L)\032o\362\342\352?\210\005\200I\302\242\320?8\t\261W\213p\305?\356\305|9\260\235\344?\3000s\315\207\245\350?\010\2675o\016\201\327?\350!b1\016u\351?\200I9\345\234\037\227?\356\353\226\000\222e\355?Nu\267<\314d\356?\000\320\227\022y\026\357?D-\2041\013w\337?\262\343\376\300\032\375\340?@h\260\013\231\214\242?F\202\272\242\264\245\356?\010\241\3735\322\355\341?\006\'\2418\273\014\344?B1\365\277\032\362\340?l\272\346\014xs\320?\350\350\201u\364\360\344?\300\257\0257\316\252\220?@f\246\3725v\344?\270%\303H\262\305\302?\266|\354F{u\340?|E\345\352\300\031\320?\350rW\177y\026\356?\300D(vG\350\351?\014\034@\216v\003\344?\274\372\275\216\025M\334?^\240\\}\342<\355?\274\2057\353\n\230\323?d\341\362\332\207\316\325?\234\365\336Sq\236\347?\234\327\006\304\035`\341?\000\201\252\n\006^\212?>x\314\243\210\215\347?V\260\374\215\024/\353?\034\235\304\236\245\007\322?|\315\337\373\225\316\350?\274\246\256\251:\037\350?\226\333=\253\326\376\357?\030r\324n\tL\321?,\261\360\302W\300\355?:\257mZ>:\351?L\242\202\267<K\353?lgq\356\253\313\346?\350\377\252\355BC\335?\036\025F\335\324\202\342?\202-\320L<\002\342?\000\335\022L\320\264\343?\000\215%pm\300\275?h\356}4y\264\302? \316\253\002\344X\255?\\A`\205\270/\340?\224q\204\240\010\216\322?B\354\251DU\022\340?\000\"&\374\036\241p?j\337\354q<}\343?\350$\252\351Hk\356?D8\221\370\361\275\326?\222\355\302\035\3624\350?\270ep*\254&\323?\220\324!A\006\236\346?\000j6>\223:\334?Zv|0\237\024\343?n\200hC\021@\344?@\217\322\342G=\311?\350\241&>K\037\334?\220\031\233AC5\357?0p.\253\316\311\273?\334\361\227\363\021\347\333?B\257\255\177\252E\354?D\343\370\330\253U\354?\270\357\337\321\333\214\324?`S\336R\212\206\335?\300%\nA\354\013\347?\324J\364\327\240\333\322?z\373\3015qM\355?\270\252\000b?{\346?t\275\0178)W\351?x\237\274\227\351\221\347?~\326A\310\237\023\355?\024\215\267vg\316\335?\006\214\360\357,s\352?\200fb\330%\323\352?2qh\365\304*\357?\230z\217\266\206\264\345?H\365X,\272\374\344?\264T%\236W\272\324?p\254\266\373\331\237\313?\266+1\017\347\327\357?\350\264\361\002\332M\351?\230\252\330A\353\265\325?@Y=\0056\017\331?\220\255\211\365_\366\343?\020o\223\365\3676\350?D~\035Y;\241\350?\000\303\305.\213d\201?0\310\224BK\353\305?\310\330\014[\354\024\306?B\177ge\204\007\351?\220\217[\331c\356\346?\250\265+\246\341\264\351?\310\003V\244\227\276\316?\206#L\211w\336\357?\260\217\371~\305*\261?\2643\226Z5\327\323?(\233\253\376}=\322?\000\255\017\326r!\256?\210]\013\356\020~\302?\000\303\322a\020\270\271?\210\337>\246\031\342\316? \021\305g\2111\265?n\253\200\260\314\200\357?\030\337\301\205\233\026\306?\340Qpq\245\347\266?8\277\251\301\2023\325?l\2346i\374\321\321?\352R\203\305\017P\354?\304\363U\244Y\352\324?`\250\026j\227\367\303?\344\374E\265\264J\354?8\2356\030t\333\312?, \'\311sY\333?r\260\256S\277\304\356?\330\324\270\371i\"\352?\302WO\r\256L\346?\372<M\032\014\214\354?6\343{\210\014t\356?\022\210\312\225\361\361\341?\220}\340\315l\273\322?\226\345=\244hJ\356?\340;\202\331\240\372\327?\"C\306\245J\241\345?\252{\233\264\351b\356?`\376\016*C\352\260?t\216\374\347\005\257\347?\344\341\3377\t\205\347?\234\325r\231\332\345\350?\302\373k:P\237\342?\\\351\2751\235\202\352?\354\346\0305\374\260\324?,\277@t\014\373\333?d\234J\307N|\344?\220\275cc&+\262?b)\377?\316+\354?\230\324~\265>g\346?\200\034\177\304@\262\327?n\rbv\232v\340?\324\341i8\245\316\356?P;\3344 o\352?\216\355\264\245\000\002\346?\302\373rT\224\222\346?\\8pq\242\214\335?\310_\020\337\373-\302?\352\302\371xM\014\354?p\232\372q\353\270\264?\220\033\232\330]\214\341?\234\003\226\273\342&\334?\264\322\007\010q\352\331?H\000}VdW\356?L\271\362\325\246d\325? \214sf-\270\326?\200\004\354$\264\367\226?\260\364\035)\250\375\343?\354\347\037\3175f\332?\234+\273\333)\235\320?\314F\233^\006x\340?\000\\\030z\345i\353?|\316\002\312\332z\346?\004c\353\244\306l\325?\350\345\341R\025\271\332?\234\366vw\037\313\322?\340\013A\201\251\023\242?\246,\352[\\\301\344?^72\231\264\252\342?\334hF\237B\275\346? \024i4\331\261\333?$)_?\267\326\341?\310QB\251 \372\302?\322\"\371\310v\000\342?\254\364\032\254\324Z\343?R+\374\265Y\\\356?\220R:F\314]\272?\360Xz\242\345k\307?\304\237\250\233\033\332\327?\240\370K\034V\261\273?Xx\251a\266\371\320?@U\360*\371\021\236?\354\314,\360V7\350?\250jp\217\232\233\322?\004\301V\2063\372\341?\374|\336wk\273\320?\304\013G\322Rx\336?Z\204\205\274VT\343?\030\016cu\334\346\322?\256|\222b\301H\340?\016dXwq\342\356?$\365\263\014\326\033\340?p\233\030\261\207\346\263?X@\007\366\326!\306?\24015\201Kp\337?\300\301C\311\205\366\320?\354}\331\256\\\301\334?8\000\016d\270j\313? \243j\245g\376\267?F\211\025\230!w\344?\272\202#\205W\267\343?pltyh\000\302?d\315y\322\277u\352?\362\"N4-\231\342?\364\005\342\267\304X\356?\300@d\336\033\306\343?VA\320\224\242\253\346?\354\341\024|\0277\343?\330\245\201\321~&\335?HY\370?\363\207\326?\344\264\325w\334 \342?\364\"\027\005m\017\337?\272\022\362\337l\200\345?n\233\225\274\024$\343?\360\360\0361#;\357?\300\262u\000&\224\262?\200s>\331\221\r\312?\360\352z\023\231\307\310?`\033\t\374\267\031\244?\200\316\366\\:\342\272?\330\377\025\002\252V\300?\320\3771{9\321\357?\274\373\375\236\"\372\321?\266\306\205-\233Z\346?\\\364\244\362yu\337?\000\361M#\273r\321?\250\337\346\030\030\350\301?\020@Tp\027L\263?\024%\3057\370\004\357?\360\260\204\314\217\374\305?\300\221\236\341\221\214\221?\372\211\350QVn\342?\216tO\213<)\341?\350R\276\036\340\226\302?\276\377\253e\354\377\352?\\\322\351\363a\323\343?\304H\372S\013c\351?\370\335C\276j{\335?\220`\3009\227\255\263?\214\327\177r\367\002\326?\000y\330\242rw\201?\020\231>|$\007\300?\240]\266\ri\031\241?\200H\033Q\031\t\346?\300*x\311\203\030\242?(\247\202]\3149\347?\300\335\"\334\235\310\277?\260\000I\347r\273\263?t]!\304\007 \327?P\311e\251\274\250\325?\320:9FPz\276?\220\371[\220\023.\336?\376h\214i=\367\355?\340\273 \004(\310\304?\020}~[\031t\266?V$0\321\002\t\344?*\31339\254\300\346?h_Q7\020]\322?\374\242Y~\207k\341?`_\370\260;[\352?\000\261\250\031\227\355\253?\0244\377\235\2154\327?`U\375\351m\272\301?N\210\\1:\330\344?(t\277\354%\"\355?\250\277C~\2309\352?\370\232\216\364\373\267\347?`*\373\3547\000\270?\360Q\340\305\006*\270?\232_\334\206\361\333\341?\270\004+w8\216\330?X\227\005Jh\317\317?\374|\355v\n.\351?`\016\223I |\342?\350\177\331\310t>\306? ?-\213\324B\240?\326\332\210}\2659\352?\244V\206~\344I\326?\300\257\204:\335\214\243?\274\013\275\3366*\336?\000\234\362\317\206t\203?\352U\331h,\251\343?`\222c\2410\341\242?\224T\341\3445\231\357?@+\033\333\363s\330?L\237#\366p\020\350?\320\t\252r\360\225\317?P\036i\367\243G\310?TLj\034d\205\341?l\3218\324RX\325?Z\347\036\241J\233\357?\350\364\204\245p.\343?\220\025\021\357.\211\274?`=\016\200K\207\301?\340\362;k\311T\301?\274B\203\305\276\305\331?\000l\020\326T\361\326?t\017H\022s|\325?\244pp\013\251\r\350? w\225[\264b\306?\010\356\007\277H\212\323?\030\324\261h\'Y\347?\250\372\366\220<9\316?ZZ\333\214\357H\355?\254\340*\021\341\325\337?\324\014@\001\177L\337?\212rB\033Z\342\351?\014\217\213\353\371\020\325?\340\215\270\3009 \334?\014j\224R\237\003\334?\332\251\300\270R|\345?\0047\270\224\253\206\347?8;\307\256\355+\321?\350Yt\"\232\\\343?\262\210\020%\321S\345?`L\0222\202\321\246?\010\344\331\265\217+\304?\260_\331\350!\307\303?\202([\001l\302\353?H\233\203\306M\337\330?\224WN\207\327\230\326?$\244\325{\023o\324?\000cN\035\267\250\247?\360\350z\027\317\371\336?\220\001\254\034r\241\317?|\033\225QN\241\330?HI\263\216=s\323?\340v\342\027X.\253?\000\367v\032ik\304?L\201H-#j\332?\000\324\235k\321l^?l\211l\321}z\355?\324\226z\010P\266\324?\314\312\372\242\352v\355?\2202\210vs\317\337?\204\315\351d\252\370\341?\360]b$\354\216\342?|\311\342\366y\362\340?r\225\272\317\013x\345?\262\254z\263\010\006\350?\214\300$X\366q\356?\206\351-Zo\336\346?0\200\241\324\211\244\312?t\277>\241~u\337?0\n\342]{\341\276?\000\372E0k\231m?\276dg\246WJ\351?\364\372S\2313\361\327?\\7\237qE\345\354?\020\303P\230p\035\271?P\203\037/\243e\355?\324\211\334:\260\302\337?\310@\330j\023C\302?\300h\323=\336f\314?\302\241\277rLY\340?\224^\353\330\2067\342?\254\370l\'\257\274\356?\220\321\311u\351I\350?\332\310a\322(\234\350?(\251!w\336;\355?p\260\035\345`\362\357?\226\257\352Lub\355?\026\202l\3123\202\340?\002\027d\327\010\206\356?0\373\376\270\225i\267?\240I\200X^G\265?\304\2262W\\W\357?\000g\204\\\231bs?\026\231\364p\244\366\347?\362\3562\302\256\013\351?\320\001I\276\035\014\353?@\242@q\325 \316?\024\032\260\204\222\373\323?6\026\022T\035\017\351?\000\214\317P\320m\303?n\211\223\357\353<\341?\014!\273\027\275\334\351?8\344\317\253:\321\322? \231]\0338~\267?\320U\304XFR\265?4\322\310z\2077\324?p\330u\377p\316\320?P\025y\305KU\341?\200&\274\264\007P\332?\344\266\243U\322\342\341?\304X\n\006\242\005\323?0\3127Ana\341?*1\367\315\324\274\340?f\234(o0\001\354?\270\023\376\252Y\233\337?\260C\327\006\230L\301?<\236!\241\210\000\350?d\211\351\006o^\324?\000\342\014\2036a\310?\304\217gy\313\376\324?\312j\000,\3037\354?\200!\251\003\334\231\261?\224(#\003\215l\335?@iV\232\004l\350?0\301^\315[\000\274?$\016\237\367\255\307\342?\004\037s\372\0103\337?p\025u\2421-\274?\374:\216C\337\277\324?\262U,\200\314\274\356?\204`\231\332]\221\336?\366\220\321\371\247C\356?\324R\266b\026m\346?\300*Q\346\236\323\235?\346\301K\253\243R\345?\2623\307\311r=\340?\230\t\200\210\245+\321?\354\305Y\335us\342?\200\204\202\220\033O\233?\240\275w\204\213\240\333?\020pG\025\273\016\315?\000\371K.\347\027\203?x\335\267\203\270U\350?\3542\225Wr\330\344?\340\223\246=\262\337\304?\010\255-h\367Z\352?\000r)\225\346\213g?\000\352\232\000\212\025\274?<\226/\014\320\222\327?\200\007\017\203\210\277\315?\360\341\207\033\324\220\302?\274\010\315}:\267\341?\322&\265\003\277\270\356?\000\206V\231u,\244?\230?\'\017\346\276\312?\300A\254\241?\024\273?\250[E\345\353\206\356?\"\310\250\325\335?\347?\330\003*\264\016\025\356?l\033\350\374\366.\325?Z\355\315\037\250\255\355?p\313N\367-v\317?,\375\342\252>p\344?\270dB\033\347\256\333?\340\211]Pqw\351?\316q4MI2\352?\222-\031\337W#\357?\324}r\314\230\014\352?4jZ\240\351K\345?\0101\274\266\024\201\353?\324M\276\320O{\350?@\343\201#\212\223\272?Z\035n\031f\373\346?He\317N/B\345?\320\325h\273~^\267?(\031+,\025\256\335?\206M0DK\332\357?Z\3230\337{q\343?\206\270\306;\376\223\355?\010\275\205\315S\215\323?\"\3341\223\274+\341?\332\346\211\260\267\375\347?\356\262\024\211\357\"\343?\000\010~\203\245\033\214?\332\332U\367\345)\357?: \352%L3\346?$\254\272F>t\336?\020\322$\261\307|\357?\000\302\374\232J\273\236?\034\306i\214\242\361\357? \360\026Ep\370\302?P\267a|q\016\324?t\332-_h\030\333? J\254\007\311\357\275?t\232\240\027_]\357?B+1\026`R\351?\304\005\275$\220W\352?@(;1e\353\334?\220K\307G`1\303?H\227\315\370\213\264\333?\330\22756+m\304?Z\241\003,\243^\344?H\312\370\025_Y\335?L_\231@\370\t\335?\020\211\2165pr\315?\010$!5\372,\307?\334\0266\020\313\005\344?\220>\202X\255\275\356?P\003\3521Y\361\320?\300\301\322.Oz\337?n\270\347\346TL\351?\010%\202I55\325?V\261\230U~\214\347?\350\362\270O,\210\321?p\212\262d.A\273?\014\343|2N[\330?\220H\352y{\261\275?\\\364\205\266\234\345\335?(a\252\354\346B\303?D\252\233\037n9\327?\"\261\363\'+\274\353?0\177\260\334_\312\265?\324\235,\014p\217\343?\212\035\315\036\030g\350?f\242\257\323\364\321\345?\254\026\010\330(\321\355?\330\322\352;Y\324\312?P\000\374h-\250\264?\000M\251\302XY\221?\250\016sP\226\344\345?H\302\t\010\210\315\352?\230\210\376\326V\036\306?ts\025\315\326\302\331?*\347@\264\341s\353?@\324\337[\373\335\244?\034p\360\331h\346\327?Pm\356\233=L\344?\254\223\276\322#G\350?\3747\351\235`\035\342?f\3658Q\352?\354?\020\350\002\240l_\275?\354!|\213\361\241\353?@Hq\375\2042\240?\270\337\004\273L\335\330?j\323\365d\312 \354?:\177\337\350\006J\353?\362\211k\204&r\340?\344\033E\021\333\233\330?84\332=\223$\320?\030\352\230K\013|\325?4\006\270\365\336\251\336?\354\330O\026r\354\324?P\243Ms\333\021\331?\334\024\242Q@\\\340?\"\371\351M_\033\346?Z\t\230\243\342\014\345?\022m\324\232x\310\352?\010\033\'\371\345R\330?^$F\214L\376\356?\2600[\320\356\020\317?\260\214U\014\022N\351?\006\257\343\265\244\221\355?\210\317\005uA\353\354?2\215\263o\243\267\355?HnOS\251x\344?P\234\277\3459H\274?\220\366-@EY\265?\300\314MUy\n\246?\240\036\247D\260\035\253?\000J\331\211)\037\257?`\3716\220x\216\246?@~;\343x\335\311?\272\n\032\255\210\215\343?\010\311}\013\2075\355?&H\207n5<\355?\014lW]\270y\356?\206\255\030\373[\265\356?.\000 \226~\321\352?\202_-\221\352\004\355?\340\032\025\273\303\037\275?\010\200\000i\322>\326?,\201\247\247\024\264\327? \212,\275\210j\326?\230\367\355\363\305&\316?\022$\256\002B\\\343?Pq\355s\372\t\343?\250\0023\342\244\273\315?n8]4\367C\343?\330]#\375\255!\320?\260\036\004\317\251\233\313?\2246w\026\364\314\336?\324\321cg\030\006\323?\330\\~\205\304e\350?h\363\237\022\267\363\332?\246p\242\236L\223\343?x\216\301\245\000\335\313?\204\311-\273\371i\326?\334B\312XH\t\327?\212\255\n\026\330B\340?\0000\363 >G\301?\034\247\335\024\260\337\341?\260k\334\037TV\273?\2541\024\313\326\021\337?\344\265\021)\354\237\356?\276\2239PE!\344?X\356\215n\250\224\322?\0100\037\0321\005\333?XVO\307\247\327\330?R\271\323\276\'\271\343?\034\234\223\342\2760\356?\200eP\314\302\016\263?\316,S\005\334D\355?t\366\023m\334j\336?\264\025\240U0Z\333?:\231N\366b\330\351?(\301\306\376d\261\327?\336\331v\367\016t\342?\340\375~(\017C\265?B\346j?\340\334\342?\266\236\253\312\241\340\351?$\020\226\266\210t\354?\\+\361\313\261q\342?8\263\300\273\017\315\331?.\314S\313\257\217\357?\220\'\'\002Z\350\346?\010h\323&\324\000\315?\232\020U\301\016<\357?0\254V\244\354&\305?\020\300@I\352\275\262?@\362\256\273\310f\237? p\265\031\336\271\340?\340Ab\261S\202\301?`\341/\005-\237\337?\300\327U`\360Z\331?\004\345\0228\236=\320?\270Z\361\274?\250\350?P\020\003\273\204j\262?\240\255 K/\344\344?\200YN\340\275\244\223?\000<\005=\364x\343?\362\224\361\305>s\352?\372Jh\327Y\004\345?\024\215=T\2031\353?\274\332\205\262\213\272\347?<\200\n\226\177\225\324?8\332\'\002\001\"\307?p\204|\363\347\372\265?\246\035M\353w\256\347? \234\022b\263\266\331?*\371\337\0057\257\347?\224\265\210=\243!\350?\33048\323\224\327\322?\334\230Z\037\240\312\343?\244{U\377\334\203\346?"
      }
    }
  }
}
node {
  name: "in_0/read"
  op: "Identity"
  input: "in_0"
  attr {
    key: "T"
    value {
      type: DT_DOUBLE
    }
  }
  attr {
    key: "_class"
    value {
      list {
        s: "loc:@in_0"
      }
    }
  }
}
node {
  name: "MaxPoolWithArgmax"
  op: "MaxPoolWithArgmax"
  input: "in_0/read"
  attr {
    key: "T"
    value {
      type: DT_DOUBLE
    }
  }
  attr {
    key: "Targmax"
    value {
      type: DT_INT64
    }
  }
  attr {
    key: "include_batch_in_index"
    value {
      b: true
    }
  }
  attr {
    key: "ksize"
    value {
      list {
        i: 1
        i: 1
        i: 1
        i: 1
      }
    }
  }
  attr {
    key: "padding"
    value {
      s: "SAME"
    }
  }
  attr {
    key: "strides"
    value {
      list {
        i: 1
        i: 1
        i: 1
        i: 1
      }
    }
  }
}
library {
}
