node {
  name: "in_0"
  op: "Const"
  attr {
    key: "dtype"
    value {
      type: DT_FLOAT
    }
  }
  attr {
    key: "value"
    value {
      tensor {
        dtype: DT_FLOAT
        tensor_shape {
          dim {
            size: 1
          }
          dim {
            size: 8
          }
          dim {
            size: 8
          }
          dim {
            size: 8
          }
          dim {
            size: 6
          }
        }
        tensor_content: "~^G?L\033M?\236p9?\220ol>\356%:?X\2708><q\001?b|d?\224\316\013?\314al?P@\257=,5K?\326\271(?\3566\016?`u#>0\024\236>\240{\036>\240h\360>\222o~?v|\034?\346+-?HM8>v\312,?p\375e>@\235P=\030\216\353>$\024T?\250\004q>H\250y?h\014V?(W\204>\014t\326>\016\3503?\366\226D? \213\t?\24019?D\300\211>\0008\312;\340\310\005=0\374\203=\\\302W?\300\325??\200\206\232=\270\337\037?\220\272\262>\256L\024?\266\256\022?\300\214:>\262Z$?\240\020j?\350\225\232>\304\372\266>\020\204.>\"\350V?8\370\013?\320W\230=\202\256f?\222N(?\200!\323>`Zz>8|\331>6\231\005?\n\3721?\240\345\372>H\001]>\006ut?\330\357\r>(\033\036>ZY\t?\200\002\\<\310\'\325>\350$\025> ]\322>h_~>\030{\252>D?\230>l\344)?\270\376\302>\212\314]?H!B>F\304@?\336\2618?\346A)?\330\037:?z\005\022?\354{\210>4\315>?\000\3675=\370\317\232>\344U\370>rUL?\200\260\305=\302\306H?\366\353\001?P\347\254=^CV?\2449\034?\254\267\353>~\326\033?\264\000\\?@t\353>\244\341+?\324\202\214>\320\336J>\264\033\324>\322:H?|s\263>V\010\001?p\233\361=$\253T?\320\006:>Z\035X?\204\343\001?x\353\344>\220\261\002?F\246*?l\345\203>h\253o>r\033.? \303\207>z\024\n?\220\032\360>\216W\035?\300\340\367=\214\343\203>\360\220\235=,\267\355>(\267&>\000wO>\2146\301>\240.O=\264>\261>\264o\022?P\264\253=\364}\330>\340\363p=zB\t?\034\203\363>\240\217\201>@\0076>p\275\231=F\316e?x\304\272>\334\353\234>D\235\362>6\2163?`\001\345>\306b\004?X\2242>\210\213\262>\316\243F?\212\372r?\310\037T> k_>^\350&?DN\236>\362Vt?P\236@>\3645u?\200\3026>\014\256v?\004N\367>\244)(?\360\245\253>V\356\177?RB\026?\032\036\023?\200\373\302<\340\257\226>\276X\006?,\177\026?H\003:?0@I>\374\251j?\310\374x?\\\256k?@{T=\020m\231>\000\254};\356\343C?\364\277\014?\334A\302>4\036\302>H\241\264>\034\037\223>\270\347N?`J\362>\014?\341>p\036)?\274a\031?\000\350_;\360\216\371>P\"!?\270\0011?\2404\030=V\255\030?\2401\035=h\253\026?\300\273*=\262T4?J\254|?\264Hv?\034\031\357>\322\212\017?\344]p?\270\256\276>\200ea=\210%\004?\350H\257>ZL#?\260\252\364=`R\004?\256q\017?\020\274\270>\224\222\001?x.\252>\244\361\037?\364C\354>,I\327>\274^\023?\024\022\037?\246?3?\320\221\244=\240\207#>\314\306\211>\3006r?D\0364?\314:\021?T\t??L\351R?\000\271\226;\000vK>V\223#?\034^\322>D\2576?\346\231\017?\264\0200?8\244o?\000\tE?4LX?\214`\302>\224\331\240>\254g\355>\310@\270>\360\302\274=\220\322\225=\320E\340=\030\375\033>|\001\020?h\315m?\036\037l?\320\216\246=\320\225\271=\240\365\006=$y\206>p\311\016>\370.\034>\350\200/>\242\352??\360\342F?\032\tB?H\3356?p\0374>\\\323\224>\362\342\032?`J\321=\300\242\220>\304\002@?\"\\\005?NBl?\260\235\024?\334\213\371>\206\245X?\200a\346>\206\300+?\204\333\032?p\250\313=\320C\304>\370q\301>0)\'>\222e}?\356\353\026?\314d^?Nu7?x\026_?\000\320\027?\020\356>>\242\026B?4\372\341>\262\343~?\310(A?\204\006;?\264\245\036?F\202:?\220n\217=\010\241{?\272\014t?\006\'!?4\344\341>B1u?\2749(?l\272\346>\364\360T?\350\350\001?\254\n\301>~\2558?\320\330Q>@f&?l\261D?\270%C>\320\253\203=\266|l?\340\014h?|E\345>\300\263\360=\320\345\256>F\3509?\000\023!>v\003t?\0308\200>\212&\016?\274\372\275>\210\363t>\274@\271>@\300\034=\336\302\033?\010\235+>d\341\362>p\236W?\234\365^?8\300\342>\200\363\332<\340\245\001>\020\250*>@l\274=>xL?(^\366>V\260|?\322\003i?\034\235\304>\240t\306=|\315_?\320\371\300=\274\246.?\254\375\377>Xnw>\004\246\010?\030r\324>\254\200\373>,\261p?\370\350d>t^\333>x\226\366>L\242\002?\252\313v?\330\316\342>\240\241N?\364\177U?\324\202r?<*\214>\340\021\220=\202-P?\320\264s?\000\350\226=\014\270\003?\0004\226<x\264\022>\320\334\373=\000\307\352;\210\363*>p_\240>\270\202\300>\004G\t?\224q\204>T\022p?B\354)?\010\205\000>DLx?<}s?j\337l?Hk>?\350$*?\200\3575=D8\221>\3624x?\222\355B?V\223i?p\313`>\030xZ>@R\007>\220:\234>\000\250\331=\236\0243?\264\354\370>\200\000\242=\334\000\321>PO\006?\320\2434?\244\017\016?\240\207\232=B5??\220\031\033?8y\003?\014\234\313>\210\363M?\356\370K?\252E|?B\257-?T\253\370>D\343x?\260\031)>\334\367o?D\303.?`S\336>\354\013w?\000\\\"=\320mI?j%z?pM=?z\373A?>{\026?\000\270*;@\271\312=@\327{=@\217\274=x\237<?\236\023}?\374\254\203>d\316\335>\024\215\267>,s\032?\006\214p?H\246\265>\000\315\304>\020\253|>d\342\320>\014i\253>\230z\017?t\371\251>\220\352\261>\250t)>\320R\225=\354\317\315>\034\253m?\346\327??\330\256D>\264\233\262>\350\264q?\364\332\n?LUl?\240yH=\240\254\036?\274\354\247>\220\255\t?\36668?\020o\023?\320\t\305= \362\353=\222E@?\014\027;?@Z\257<\0142%?:\205e?26C?\204\007Y?\204\376\316>\304\334\355> \037\267>\300i\363>\240\326.>\244\257\007?\220\007\254=v\336\037?\014G\230>`\225\010>\3661_?\240\271\036=\2643\226>|=\222>(\233\253>\026\342!?\240\365\301>\204\237$?b\327\002?\004n\306>\200ai>\014q\217>\342\267\017?`L\305>$\242x?\314\200\037?n\253\000?\230\026\026>\214\357\340>\000=7<\360(8>\2003\325>\234\337T?\374\321\321>6N\033?\016P<?\352R\003?,uj?\210\347+>\200\274\237<\030\252\005?\264J\\?\310\371\213>\334\266\006?\340tZ=pY\233>\026\220\023?\276\304\036?r\260.?\320D\364>\330\3248?\2702Y>\204\257\236>``\344=\364y\232>\030\350\274>l\306\367>\360\3611?\022\210J?l\273\322>\310>p?\320\224\274>X\226w>@\365/>\360\035A?P\n\255=\"CF?\350b\036?\252{\033?\220:\304>\230\277\203>\004\257W?t\216|? \024^>\344\341_?\332\345\030?8\253\345>P\2372?\204\367\327>\234\202\032?\\\351=?~Xj?vs\014?\206\375m?X~\001>8\361Q>\3108\225>\000Y\021<d\357\330>\234W\370>b)\177?>gv?0\251\375> \331k?\0009~>h\332A>\334\032\304>H\235\275>\250\303\323> oZ?P;\\?\000\002v?\216\3554?\224\222v?\204\367\345>\000el=.\0348?~\213\004?\362\027D?\230\030\370>\352\302y?\034\227\"?8M}>\270\030\243>\220\033\032?\340&\334>\316\001K?p\352\331>\200Vz<\310\256\374>\220\000\372>R\262j?\246\\y?`\3015=@\030g>xo\301>\220\200\035>P\373\347>\200\245\357=4f\232>\366\363\017?\224N(?\316\225]?\014\360\340>\314F\033?\220\247m>\000\340\302=\264\365\354>\000\2373<b\266\n?\004c\353>\212\\\r?\350\345\341>\216e)?N{;?\350\204\004>\360\205\240=\\\301t?\246,j?\264\252\022?x\335H>\010\365Z>\270\321\214>\300\216]=@(R>\266\326\021?HR\276>\020}\211>\344(\241>\260\003\220=\322\"y?\250\265\246>`\245\327=X\\\036?R+|?\270K\003?RJG?\360\265\313><\226\036?\014\355k?\342OT?T\354\206>\024\177\t?\332|H?,\274T?\216\360\000?T\005\257>V78?\26033>\300\334\024=T58?\310\350G>\010\202\255>\264]H?~>o?Px\336>\210\027\016>VT3?Z\204\005?nsI?\014\2071?\200\221\340>\256|\022?p\342~?\034\310\260>\2547\340>$\3653?\320|B?\270M\014>\200\016\261<\026\320\001?$\270o?\320\230\032?\010\355!>\340\340!?\256`n?\354}\331>\270j\033>\200\003`<\000\363?<dT-? wt?0J\254=\254n\247>\350\n\016>4\000\311>86\272>\276uz?\310\232\363>\260dJ>\344E\234>\210\261\274>\364\005b?\032\306s?\200\201\310>\242\253\026?VAP?,n\246>`\017\247=\370L:>\354\322@?\370CK?\244,|?p\203H>\344\264U?\266\207o?z\221\013?`\003\254=\272\022r?\240 \231=n\233\025?\";\177?\200\207\367=\204R\002?\200ek=\220\r\032>\3009\237>\300<\306<\274\272^?\232AA?\266\221@?F\\#?\320\331\036?@\265\202<\366\177\005?8\321\037?@\377G>\020\375(?\274\373\375>\232Z6?\266\306\005?\274\272o?\\\364\244>\300\225\013=\200\370&?\006zD?\250\337f>\202i\"? \200(=\370\004\177?\024%E?@\344\257<\360\260\004>d\214\000?\340HO=X\271I>\372\211h?xR\342>\034\351\236>\340\226\022>\272\224/?\354\377Z?\276\377+?\200MO>\\\322i?\nc9?\304Hz?\264\275n?\360\273\007>d\353\304>H0`>z\001k?\030\257\177>\334E`?\344a\013?\220\003\210>@dz=,#\202>\332e[?\030\t6?\000D\332=\000\304\220;\254\202\027?\230s\356>(\247\002?$\362\307>\270[\004?\270\335\t>\026 i?\004 \227>\320u\205=xQ+>\250\3442?J\317C?Z\'G?\010\027/? \3637>\360\334w>\376h\014?\n2\005?\200\357\002=\202\316\"?D\237\337>\002\t4?X\221@>\254\300v?\250,O>\210.i?\264\257(?\206k\021?\370E\263>:[z?`_x?\260}\303>\020\213\032?F\232+?\n\232\177?\232nD?\260\252\376>t\260\251>\234\020\271>$\"]?(t??0s\364>P\177\207>\320\277\275=\370\232\016?\200\001@<Le\037?\200\n\306>>\n<?\200\337\216=\232_\\?\034G\014?\\\202\025?@{\376<\326e\001?(\270d>\374|m?\000\341\223=`\016\023?p>\026>\350\177Y>,\004a?\362\3232?\2649z?\326\332\010?\362$\013?\244V\206>\3148A?\374J(?\240Qq=\274\013\275>\000\244\233:\300)\177>\260\244N>\352UY?\022.\001?0\311\261=\240\311\374=\224Ta?\3709l?\240\225\r?\340 \360>0}\016>\200\257\374<t\202*?\350\021f?\224GZ?d\205q?\250\230\324>PX\325>\260E\343=\2246\377>\320:\367=p.s?\350\364\004?$\221C?\262\"b?\322a$?\000\326c<2Ud?\270\374N?\336\342l?^\241A?\252xK?\000`\003=p|\325>\350\036\020>\250\r\030?H\341\340>\254\230\005?\310]e?$\305I?\004\367\003?\230d]>\030\3241?\300\311\361<\250\372v>\356H\035?ZZ[?\340\325\237>Vp\025?|L\237>j\006 ?Z\342Y?\024\345\204>\300\207(=\206\307E?p@8>\340\215\270>\316\001\016?\014j\224>\220\342\253=\332\251@?\250\032^>\00478?\330W\">8;\307>4\271\246>\320\263\350>\200\236\252=\220E\204=\030m!?\030\223\004>@\\\241<\004\362\354>\310\361$?\260_Y>\330\204\367>\004Q\266>`\372F=H\233\203>\324\230\226>\312+\'? \336(>\022\322j?\212zA?0\346T?`\316w=xt=?\\\350\007?\220\001,>\246P\014?\276\215J?\236\271I?HI\263>\344\262A?\334N\374>hk\024>\300\275\035? j\232>\246@$?l\036\200>\352\3165?\370\364\272>\330\022\331>\200\262%=\250-u>P\267\353=\314\312z?\200{~=\2202\210>\252\3701?\204\315i?\354\216\022?\340\273\304>x\362p?|\311b?P\300\253=r\225:?\020\014\260>dY\365>\366q>?0\002\023>n\336V?\030\2467>DR\215>0\200!>|u\337>\272_\037?\\\270\207>FA<?0;\300>\350\027A>X)e>|\311\316>\200\211?=z\375)? *\347=\\7\037?\\G\306> \206!=\242e}?\200\032\374=X\341/?\324\211\334>\304\220\004?2\0206?\330f\034>`\264\351>LYp?\302\241??\014o\244>\224^k?\256\274~?X\361\331>\350I\030?\220\321I?P8\261>\264\221\303>\360\336\351=\240\244\006>\200\311\177>\200\203\355=tb=?\226\257j?2\202\020?,\004\331>\010\206\036?\004.\310>2\355B?0\373\376=\352\250\002?\240I\200=\270\256\276>\020[J>\210M\300>\316\0109?H\355\357>\026\231t?\256\0139?\310\273K>\034\014;?\240\003\222>4\210\007? Q\240>\200\334\037=\024\032\260>\340x\310=\260\261\220=t\333D?\000\214O>P\347\211=n\211\023?\340\345\316=\014!;?\234hi?\034\362g?\200\361;<Hf\327>\220T\205>\320U\304=\2047\224>4\322\310>8gH?8\354:?JUq?\240*\362> \200R=\200&\274>\244\305\343>\344\266#?\320\202i?@\214\245<\334\302\242>\300(_>\324\2740?*1w?0\001<?\230q\">X\233\237>\270\023\376>L\246\210>\354\3205?\020\001\360>\360x\006>6/j?d\211\351>L\030F?\2008C?d\177\n?\342\3073?\3027\\?\000\224\325::3\002?`H\352>F\266\016?J\224\021? `\303=\200\322\254>\024\000\207>&\330+?\260\036K>$\016\037?\204\231O?\010>f>L\013\207>\\E\235>\340\376%=~\035G?\314\274>?\310V1>\\\221\336>\204`\231>\230\016y>\366\220Q?\026m\026?\324R6?\234\356`?X%J>D\245\352>\314\203\227>\344z\240>\2623G?\322\225h?\230\t\200>tsR?\330\213\263>x\332 ?$\024\004?\210\240\233>@{o>\256C\007?\010\270\243>^L@?\344/9?\340Va>x\3357?r\3304?\3542\025?\3547%?\360I\323>\354\265\264> \2646>\212\027`?r)\025?\300\n\016>\000\352\232=h\311\013?\360X\276=\304\337\216>\340\301C?4\244d?|\370a?:\267Q?\274\010M?\360\305\365=\322&5?\306Ba?`h\025?\000\367\325<\346\317I?\206b#?\340 V>\352\206^?P\267\212>\334?w?\"\310(?p\250\360=`\017(>z\227J?l\033\350>P[\273>Z\355M?\024\273\317>\334\262S?|\340\250>,\375b?r\327\r?\\2!?pw9?\300\023\273>H2z?8\307Q>V#\177?\220l\311=0\031\264>\250\373\344>\350K\025?h\324\264>(\002\267>\0101<?N{X?\324M>?\300I\r>\320x\340>f\373v?\264:\334>.B\025?HeO?\200\363:<t5\332>\024\256\235>\240d\254=(i\177>\0306A>zqs?hMC>\376\223=?\206\270F?\250\306I?\204\336B?xW\242>\210pG>l\373\257>\332\346\t?\356\"\023?p\227\245=\334\340\200>\000\202_=\344)_?\264\265\253>L3\026?: j?\036:o?$\254\272>\306|_?@H\023>\264\353\301>\020\346W?\242\361??8\214\323>p\370\022>\020x\213>p\016\224>\240nC>4\214m?:\355\026?\360{\207>D\211u?^]_?t\232 ?`Ry?\010\255D>\220Wz?\304\005=?\262u.? \224\035?X\314$?\344\322q?D\332-?H\227\315>\2246\312>\366e\r?\020\365\242=\200Vh<\256\254N?$e|?\374\204\016?L_\231>8\271\216>\210D\307>>\313\005?\004\222\220>\312\005t?p[X>\254\275\036?\220>\002?\300\212\007=\250\001u?Lz\237>\300\301\322>\250\230\262>n\270g?45\325>\204\022A?\374\030\257>V\261\030?,\210\221>ty\\?$h\003?NQ\026?\246-l?\030\306y>\\l\307>H$u>\316\362\016?\\\364\205>\270\320\004?(a*>l9\227>\"\325M?P\341\335=\"\261s?\224r\305>\346\017\026?p\2173?Pw2>\030gx?\212\035M?\350\243\353>f\242/?P\242\273>\300j\001=,j\315>\266\264z?\004\225B?P\000\374=\224\025\201>@S\252=,\311\353>P\035\346>\210\315Z?\200$\034=\200\362\260<&\242??\324\302\331>\272\271\n?\340s\033?T\316\201>\336MA?D\375=?h\346\327>\0168x?<L\024?Pmn?\210\034a>\254\223>?`\035R?\3747i?\324\177\270>\230\325c>\000\373j<\000\004\272:\360\241\033?\330C\370>P\006\202>\204\024W?L\335\230>\334o\002?\224A\370>j\323u?\006J{?:\177_?&rp?\344\023\327>\300\336D=\362\215\"?\220$\320>\034\032m?\004\276j?\014uL?\334\251\336>\032\003\\?p\354\224>\330\261\037>\354\210,?\250\321&?\000\342\202=\334\024\"?\2746\254>\"\371i?\342\014U?Z\t\030?x\310\032?\022mT?r)L?\204\215\023?0\371{>\274H\214>:\304g?`a\266=\022N9?`\031\253>\244\221]?\006\257c?\200\326\271>\000\361\271<\242\267]?2\2153?\250x4?\220\334\236>\006\211C?\212\3637?\000\312*<@\332\267<\230\202\005>\230\271\251>h\307\006>\324\343\224>\362\361a?\240\224\035?\000s\264;\200\345[<\274\356\314>\220\337N?\020\033\247>\320U\320=0\254\351=\020\222\373>4<}?&H\007?\270y^?\030\330\256>Z\265\036?0l\305=~\321z?\270\000\000>\352\004}?\010~5>\340\217\016>\270F\305>\240},>\004@\000?(h/>\226\300S?@T3=\020E\026?\300&\036>\346}{?B\\S?\022$.?\364\023\246>Pqm?\320\335\316>\252\300\014?\330\017M>\334p\272>XC >\354\256\021?\352\346f?\254\007A?\364\314\236>(mn>\3000\030=\352\3501?\304eX?\260\271\374>\332y-?h\363\237>`\232\234=\246p\"?\200\356\315><\307\340>\360\323,>\302\344\026?H\t\227>\334B\312>\330BP?\240\330*=\316Q$?\0000s>`\277\243>\034\247]?\312j\003?v\215{?\324\021\237>\326\030\n?\354\237\036? \257\215=\020\205P>\370Nf>TJi?X\356\215>\230\202-?@\200y=\244\327\330>,\253\'?&\271\023?R\271S?|a\274>\034\234\023?\330aB?\260\014\n?\334D=?\234Y\246>n5/?:\373\t?\030\255\r?\332\nP?\020\303\316=t2\235>\310b/>(\301\306>\034\350\244>\274\263\355>\300P\205>\300\373}=\340\334\022?\204\314\325>@\301\363>\266\236+?\210t|?$\020\026?\200\215\223=\\+q?\206\346l?\234Y`?\256\217\037?\\\230\247>\264\320\255>@\236\034>h\200\216>\002\3324?\016<??4!\252>t\223\312>`X\255=\274W\002?\010` >6\373 ?\222w]?\274s\241> p5?\224`\004?\360 \261>,\237\337>\260\360\027?\200\327J=\200\257+>\234=\220> (\027=|P\261>\270Zq?@5\t>\024\304\300>.\344\024?\200\266\002>H:\201>\000\263\034<\350\361\246>\000\200\247<\360\231\323=\362\224q?X\004u?\364\225\320>\2021{?P4v>\024u\257>\274\332\005?\276Jj?\300\003\250<\200\310%?\216\366\t?\\\277\"?\034!\337>\260s\275=L;\232>X\333,?\000\341\024=l^\257>*\371_?\210\206`>\224\265\010?\312k)?l\032\034?\200*O>\2701\265>\270\007\255>H\367\252>Lv\362>\030Lm>\314\211N?\210\364\316>\214\314\347>\000\365\345=\306\342Q?\350\323\340>$\266\270>\360\036j?\300\215P>t&\200>>\354\"?8(\307>&\235g?\000\371\334>\000\260\026>\000\036#>$\244#?\312\246\013?Z<#?\224\'\335>\250M\377>\n\333\032?\260\013v>\354\324\304>\234[\274>\236\034T?\306j~?\010k\306>\350-e>\320\343\275>$dI?\000\352[<\240Xi?\240\\\364=X\0261>\234H\332>\340;\330=\262\225Q?\2407\314>\340\244D=\266\254\020?\310\\T?\016I*?\302}2?rS6?\014\255\210>\210\'$?\000\002\036>\220\305\335=0>\003?\374i\014?\234\374f?\260m??\212Q{?\024\016\232>^\227\021?\230\024c?\304\177 ?l\235&?\356z\030?\302\274>?B\345G?X\350H>\204\263\315>d\"\020?\024T\327>\352Qe?\240\224\024?\370\367\006>\210\013\357>XTY>x\006@>\270\0277>\364\200\251>\370\225\210>x\240i?|\007\210>\000\323\355<\324H\001?\234\002\275>\246\177\006?\004\311\253>\030-\300>\214:G?\204\226[?\260\371\203>Z\206;?*Hc?P\262U>\\\220J?\342\205\034?\250\202\013?\274\360c?n\240,?`\202\270>|yB?\264\211\022?P!8?D\006L?\240\336x?\276q,?\210\307\314>`\320\366=\200;\315>\022\3243?X@@?6*\t?\014\026\210>\220\273\200>\0261}?\n\020U?\304\001\240>\320\243\227>\020\274{>\3708\017?pl\325>\334\241\251>x\324\"?\306\331u?@\221\237<\340KL=:\0278?\020\032\253>\\\202X?\364Z\227>\230\n\271>tn\366>\000\217\315<hpN>\2205e>\224z=?\350W\350>\"5 ?d\366h?4\001\332>h\203\376>0\025\033>\200N\303<^\003j?\034\347\376>\206Ox?\302iR?\200\370\307<8\377\363>\240\340}>2\316\037?\260\035\301>\222\342\177?\244\231\225>\214\000a?(cl>\254\354\212>\320}$>\020h\220>\244\026\270><\353I?z\2555?\230\305N?\324\257f?@\326\363=\2264_?\340\3556>\374\325\325>\200\005\017>0\334\004?\002A\021?\024B\243>\330$\351>\362\026!?\362\247\000?\240\031\251=\244k(?Z\325R?\0241\"?\274\177\037?\310\370J>\260\272$? \016\264=\352W0? \350`=\304\362\343>\342\3732?2(/?\020\357\203>\200\032\036>\344\315/?2$T?\220o\254>PI\177?\3509Y?\024\252\204>\254g\036?\240\205[=\310J\206>(4\326>\250\310*?h@n?\216%d?@\032c?pg\242>\220\233\316=\330\021\306>\350)\255>\354\227\010?F\340`?h\271\177?j\016J?\2105C>\260\332\321>\240a,=\260\026{?\004\025\241>\320\247\342=\344*\004?\320\275\270=\312 U?\200{9<(bK>H\237->\310\024D?\352\376&?B\3136?\200b\324>>\262\022?@\0061=\206\342w?bV|?\300\376\374=\262\233\026?\356\255\023?\236\304S?t\375\262>\340\211a?4Td?p\242\325>X\322j>\340\234\210>\370\"\323>\234\307\323>F\347Q?`/0=^\027l?\200r\313=Z\275t?\\\304\305>\310i\031>(\020>?\270:r>d$\364>\024\3034?DE\344>h]\033?\270\213\307>@ Q>$\031\351>\224~\010?\200d@? N}=\030?\021?\0040\303>|\3258?\250\375\242>\020\226\032?8\356\273>x\t\224>P\0263?\262z<?b\326h?\200\222q>\2567{?83\246>\010\177V>\010\301v?\220\200\316>$\200\262>\242)/?`)o?\234~\237>\000\341\267;\200jw>\244\031\352>\300\236\252=`\223~=\2226&?\214\2771?\022&Q?\260\233#>bC(?\206\330n?\272\376\177?D\034\333>8\377S>X\341\226>\262;!?\264\360m?\324>!?\372\242Y?\010,\325>V\331{?\314&\034?\260(\312>\300r\250> \226z=\000\014\323=\374d\306>\254\214P?\270a\024>\000\203d<\000\314\254;\000\356\r?`\312g=\350\3714?\256\'x?\332,2?\340F\034>(s\271>\200T\374=0\356d?\360\351\016?\310\002[>p\313\277=\020&\357= \206\303>\320\350b?\376}I?Hhn>\"\315Q?2Oj?`~\233=\014\343X?\354J\201>p\222\305>\000\'\277<8\010\266>t8\360>x\250\316>\240\222\314>p\344}>\300+\321=H\246\\?\304}\304>\272\302`?\000ac<\200\013\017?\360\237\246>\250n\232>\242gq?L$\272>\332\010\004?\\\245 ?\206\3447?\3603/>\200;\215=\336\"\013?~\'D?@\315J>(mm>\000v\234<J\200 ?\200(\330>\000\375\246;\340\316/>\300\366\266>$\243\324>b\367,?\204a\013?,\334p?\244\310\366>\230\327=?\316w\022?4\301V?\306\332s?\220\265\363=>\014<?\300\263N=\304\010d?<r\320>\240\350\273=\030\224\027>\236#!?P\203y?\2640\023?\232\006\005?\3429C?\304\314Q?\254\266\233>B\356T?\274\241\217>H\303\276>\222h\\?\250\003\357>\260Q\364=\000\220\343=\374(7?(\263\315>\224L\254>\026\352/?d\237>?\312~i?\034\364g?\260\330\375>@\363\344<\340\376P?$n\224>t\250\370>\022{\032?\242l\"?\272\327[?x\357\243>\372\276Z?\234\027\303>>\334_?P\305\264=\240\rw=hS\233>\004\264r?n\020u?\030\006X>\000\014A?6\221+?\020\027\007>\210j_?@j\341<\200_\177>\266\3518?PM\232>\030x\256>\350\321\r?Z\270j?(?9?\342\241x?\006\213\037?\364\021??`\241#>\326?w?\346\005r?\354\250h?\234] ?\204\225\374>@\321x?@\200C>\020\344E>\322M\023?\244<M?\204eC?\300\352:=8\003U>\030\004j?\3449\023?\234\346\221>8\010\263>\264\212\247>\250\374K?\240!\300>\316F\030?\344\020\031?((\321>@\270\356=\364\n\347>\260T\252=\274\351C?\000\205\007<\254\255p?\236\277D?\0348s?\374cq?\254/\364>\206\212]?\302x\003?*\223)?d<\312>\260aS>\354\252\001?p\007z?ZpM?\320\215\221>\022\005 ?\230\331G?\306&7?\250!\034?Xk\213>@rr=@\027J=4\256Y?h\207R?\362z\t?`\205\">\260\333B>\004\3571?\376\214u?\200GF=&\331\025?\030K5>\350\345\356>x&\272>\326\375B?\200\303\010?\376h\035?\230-\373>\312\341x?\304@\t?@\'\371=\3101h>\260\263@>\020\272\256>2`l?jU5?\000\306I<@\256z=\332\232U?\220\345w>T\351P?\326^\001?p\377Q>\240\301J> \036\271>t\240\362>\312a\033?\322M\027?<g\224>H\357\035?P\270z>\\\354\217>\352qE?2\213E?\260\250o?\362\211\027?\006\253(?\310j$>n\243\017?\312a<?0j\325=\260h\306>d^;?X\213\214>\206}(?\212(7?\010\031I?j?z?\250x\036>Xu0?4H\001? \371\324>\212\016D?\344 \005?D\233&?$N\272>\336\2371?0\263\353>\200n\371<\222\214*?\334\"\004?\370\2704>0]\237=\336\'|?\272BP?\000\354\017=\020\372\324>0\346\202=\362\353V?\304j\201>d\"\266>t\241Z?`\315f?\326!w?Z\3012?\210V\215>\240\013\355=>\371Q?\024h\367>hvK>\230\315\211>\264t\004?\036\013\031?\370X\204>\340is>\3347\226>b\274\'?\260\326x>\260\225\206>\026`9?\260\013\335=l\363\357>\212\334(?\2463\022?\354E4?\234\334\224>b\345/?\210\232\177?\200\320O>\354W\352>F\216\177?\000E\322>.\3410?\270E\321>\320_\212=\310\034\024?\306f\023?\360>\246=\220\362a?\272X\037?p\236\363>\300\246\t?zw_?\320FY>\020W\'?\200C\301>\200\'\323=\200\307\254=\200&5>\360\217\213=\260\345&>Rv/?(H\235>\000\350n=\332\220i?\370\345\215>\366H\'?jbx?\224pX?\210\345o>\260:\346>@\302\351>\212B<?Lr\366>\306\247\002?P\220\037>\330\246P>x\231\302>\370\177\346>\360\321L>\234\'\224>\272\003O?\270[i?d\024\251>P\002%?HG\224>\200\263\027< s\371>|\275\004?\250x\304>\200\235\245=\014\330_?\000\315\237=b\202^?P\031\n?\330U\213>:J\005?\204\032\330>\274+\333>\236\212i? Ha?\340\377\246=\006\245\024?\022J\024?\340\r0=T,\330>hs\237>\036\314\017?\354\236\217>0(|?\230\243/>\206\212z?\226&j?\000\207^>P\370\316>D\226\346>4\001\352>\020p\234>\370\2133>V\210\006?h\253G><\025p?\300\273\347<\320y\333>\000\372N?t\302f?\364\n!?\300HZ>\376\313c?\300\252\301<b\256/?0\304\260=\300\r\210=\340\331\263>(3V>\310f\026?\366\256\004?\326\2156?\010JO?\274DA?\220bd>\300\021&>P\211%>^<\r?\320\231\216=P&p?\270\250\360>\324|\321>\2106\'?\364m\025?\330{a?\032]N?\350\334\030?*\316 ?>\250(?p\336\022?\370gf>\020y\316=\000\2701>\000]2>$s\375>\034|\005?\320\266\303=H,\010>\272\021|?\354\242\240>\254\240\242>`vf>\330\266O?\354\014#?4\201\303>\340\346d=\346\377\032?:u\027?\030t\214>v$\017?\272\274,?@`\330>\240\364\224=ZF\026? \363\256>\270\3340>\330\371\\>D\253b?\370t\274>\324\275t?`\035\354=F\274)?\340\204\366=\372L\035?\274\263\225>`\3573=^7\n?\000z%?\300F\270=\362\224\004?\300\013\340>\376m??\210Mi>\252\006b?T\343{?\000#\250;\324\342\312>n\rp?l\2715?\020\327\254=rv\013?\260\326\233=\002\343\010?(\260\317>D\334\345>\000]\'?\234\"\313>\276\360\013?\332\305\035?\370\377\031>z\3772?&\364N?\254Ef?\230*\270>\240^F?\370\004[?\224Q\016?Hy\203>\002\246H?p+~>\206\255<?\272\235L?\300!\213>\264\030\230>\200\245l<\024I+?\"78?\214\0219?4\344\372>p\257\033?\204\331+?\246\276+?fDv?\260\354\325>D3\332>\342\216_?\010\t\260>(\3006?PJZ>\030\313\261>\344\017\314>\346\240\010?\370\354\233>j\036k?\000\277\354>\230\3678>\214\232\335>\024\300\001?\246\037\017?\224\301\354>\350\374h?06g?h\2702?\304\334\227>\216IZ?p\224\250>\326\231H?x\034r>\274\002$?\020e\014?x\377\'>,*\301>fo\177?\000\211\007?\344\tz?\214\177$?4A\027?\000n\222<0:\177?r\221_?\252\252>?\360=\351>\346)c?\260e|?P#\316>\250\000P>\300&\024>8C\311>v\245m?\310&\326>\212~^?\000f\241>LL\027?6\315z?\334v\305>l\365\017?8\347y?~dC?\010\342-?8c(?T\003&?`\226i>F\333Y?\376\216Z?\260I\363=r\244d?\232 U?\300\327\321=\274{t?N\315C?\250I\266>\360\377\033?\250r9?\356\014A?\220\345\321>0b\030?\\\3018?\344\345y?\350\355\327>@\024\205>H\0317>\220\022\207>\200H\321< \301\036?\314^.?T\241~?j\341G?\276Y%?0\361%>\240\2071=V\255\r?0qo?\332|3?\306\316&?P\000\361=\212\340}?X\246h?Z\206\013?\036\356U?\210a\005?\202\221#?\330?M>>Uo?\220W!?\032\323]?\256\331]?\322.,?TFO?\340\026\313>\330\021\342>\332M7?\200v3=H\230G>\010\211L>\020\356\032?\330\341o?@(\372>\354\030\023?\216\020K?\032W/?\342\335~?\270\372\335>\304\371@?\326\245\035?\350\240\346>D\331\260>\320\013\340=\240\306\256=2\205h?\034DZ?X\223\010?\330\252\266>\220\253C?\220]w?<?\271>D\272t?\034\r\352>\374\035\016?\220AT?j\215.?@\006x?\370\343(?\320\261\352>\000\370\002>\200 b=\376\361]?@Eu?\262\261q?\330\267 >\356F\024?\340{\365=\254\371\t?\202\240`?p\313\303=\260%m>@\352\261>:\004s?v\352s?\010\264r?\240\202+=\216\265R?\032!V?\274<\313>Hsd>\254g\235>4\023\377>\340\334P?\202\343W?\216\350\030?D\347\324>\"p.?@\010\344>X#\033?\002\033\027?\020\273e>\034x\361>\214\315\026?\014)y?\240\215\261>\260\350c? \374\260=0/S> \306g?\250\241\252>\322 n?\2642\205>\364\321\226>h\326\342>\350\2258?\370F\330>p\241\221=\000\002\345;\220(!>\370\204:?\352Kt?\204\373i?p\376\275=&JC?(\257\224>h\013/?\000W\t?\250d\032?\340\313\t?NJ~?\304\274+?\220\334L?\334)\265>\360k\014?\374\031i?\260\215\203=@\260p>vpi?\216^4?\260We>\300k\327=\200\366A>\234\234\216>z\375\006?\344\301j?\322VJ?p\007\023?@\245\374<\240O|?\230\352\t?\350bQ?@\345\003?P\2007?\216I0?f\276X?\244\356\201>\364(9?v~\034?\236\215\023?4\225\251>h\345\201>\240\373\222=x4\035>\202L&?\004q\353>\270f>>nd\037?L%0?\230\232\030?P\241\r>\234\226\204>\032Gy?\032\tB?\200\370J=\360~#>\026\361]?\020c\020?\250?;>\220\t\013?P\210\030?\200\332\374>\314=\032?x\0136?\314L\361> \323r?&8V?\266;Y?\210\266\350>\310\222\300>\000\037 >(V\365>\340\206\323>\370$\005>Jqq?\200\022\222=\244\023\263>\220\305}>\004\316\247>\006\250{?\210l\210>4\345\205>8]\r>\316\004\001?@\301\303>\310\362[>8y&>D\010\204>\3007\225=\314K\220>X\034\216>\3300\354>\264G1?\320Fx>XT >vC(?\030\230#>\006]\013?\210\361\025>\270\340\331>\320\036\216=\316+Y?p\300Y?\220JF>\214\005\220>x\002C?\324\314\366>\0241}?\260\273\354=\256JK?\230[\307>>/9? UU?8\315\244> \376\225>\270\2328?\372He?\000\3301=p@\264=\020\365\'>\200\027#?\340RR?\2404\007=\006\265\031?\340\\\241=P\177\313>\026!0? +a><\035\265>\000\364\001>\370\242V?\\\232R?\230D\037>\032\354\020?\356\346\000?\312\246S?\350\022\'?\200\231\020<\330Q\370>jT\005?\352\273j?H\266\336>H\0326>d\\\232>\200J\344>\000\307\351<\376;@?(\304`>\214S\234>@\333\265=\020\303\265>\316\3116? #\006?Z\001)?\332\232\006?\274\342,?L\212\267>h\377>>\034C+? \213\271>\224-^?<H\307>\316\362X?\204\004\014?\266/\006?\020\177\352>\344\2448?\220C\252=\360\300\305=\244\333A?\344Ey?\370EE>\026\375\004?4\003\346>\310\202_>\200}\241=\244\254\323>\374\217\037?\246\031M?\246\321??\034\0109?\272\t\000?\350h\375>26\004?\0103.?f\360\005?*\006\022?\206\023\034?\200\220\366=D\013r?\224t\376>@\322\263<\320\333\334=0\347\272>\320.\262=n\r3?\314\"\330>\334Fk?R\275k?x/1>\000\t.=\000\260<>\360\022n?||\311>\000\177J>8\267\262>8\226\330>\344\356L?P\215H?\324\251y?`\004==@Qu=\030\331 ?\300\217\021=\370\026\255>,\225P?p\025h>l\345v?\000\202^;Pt\245=R\206C?8\177[?\202\372\036?\006\245\177?\204I\273>\246\001P?t\330\206>\354qq?\000\220\200=\342\223y?\364D\226>(`\014>\010U\370>0\351W?`#0=\274\310s?r\301[?\210\202\306>:\032-?\360De?`\025\031?\360\254r?\350\263;?4y\034?\322\302v?\260\2763?\250\021\001?\334\244\310>\000\253\272;\244G\343>:s+?\210\025&>\370\343#?$\325\341> \217\265>F\004c?\262\2113?P\256\332>X+q?\022\364\000?Pr\331>85$?@n\216<\214\177{?\250\230B?\300\364\273<pt??\260\026+>\262\264x?<\260.?\352A\004?@\370\275<r\006p?\034x\307>\226F\024?j\247m?@\270\000>\374\006\336>ngN?Tf\201>d\306B?$\256\375>\020\243\'?\3344\334>`CE>\200\241\t<x5\265>0\313\306>Z\023}?\342\365\026?\370j\001?\330\226\021>\006\213[?0\363\217=\360\344g>\310\rh>\200\305-<t\202\302>Viq?@\010!=\300\273r=p\232q?\242\0102?\004uO?|\001\337>\330on>\010sG?0\202\374>jwv?(\253n?\230\306L>\020f#?t\023\270>j~v?\200Y\276<X\\\003>\200\016\324>>nB?\3266r?\214\352q?\372\000`?\030\003\253>`\305\227= \275j?8\340k>f\350;?H\3352>\344N\014?\000\234\206>\33278?\360\231F?XW\037>\250E\313>h\364\223>\354\022\004?\364\016\005?n\232??\200\362\355=nT\036?\264\017\240>@\211k?\314\r\305>\332GP?\316/\032?\200\371\313>\324W\207>,\303#?d\204E?\022\240\005?0\363 >\330\255\235>\000\350\327;`\232\\=\230\n^>(Y>>\260\nQ>.\242\016?TZ\246>H\022\276>`\303\306=\020\"s?\220%&>p\331\206=\200\356\250<\026=\007?\272\212\025?8\351\014?$\207r?\200\220\322>x+\342>\360h\332>N\344\006?\344\364\025?L\256%?0{\364=\014qU?\304\347s?,\310\301>6\324P?\210\214\266>p^\017>\024\203\302>\020\" ?\304\260\313><|\241>\350\210h>\030\353H?\0243z?\200&\t<\036\315\034?\320R\370>\274\257\250>(\310\366>\310A(?\256\270|?43Z? \233[=\036_^?TA\177?\370\302\356>@,\204=\360\340B?,\324\225>l\303C?\360\225\022>0P\237=\250\226\251>l\027\311>@\334\323<T\315\220>\300\317O>d\360,?\302U5?\262*\002?\300\204\200=`w4>JTN?P/\264>t\242\003?n\003~?@,\320>\030E@?x\245\357>\324\240\254>\3744\346>\256\242p?X\213\177>\3348\331> \375\207=\200q\233=\340p\225=\334\237Z?\230\"?>T\207\336>\030\311\211>\304\235`?J:%?\314\247\251>\320\256\004>:\325\035?\224@[?\320\026\241=\020ZF>p\346#>\300\317\357=\230\205h?\2204=>\020\301\354=\306mg?\000\234\273>\242\354!?l\270|?H\314\r?\342\354:?\216\322A?\026\rR?P\271\323>\334\306\350>\210\204\250>z\376=?x\306\242>fr2?\234\360\365>\360\035\252>\242w.?Lcr?h}F>\202I\025?\320\364\253=8\264K?\300\362\025>T\033\371>d\234\314>|:C?@\355\023=\3062\035?V\037q? \005O=\024C\241>\034S\365>\364&U?\350\0074?\310l]>\354\340\356>\256\325\005?\242\370P?\200wj>,\237X?\034\362\222>j\246+?Hc%>\340\214\271=\002]=?p5\213>0\224 ?\330\334_?\\K\362>\030\210(>2\202c?\274\317\362>\030\210\241>\340\021Q=L@\017?\260b\351>X\347\177>\036O\034?p%[>\002\217\014?~\006T?\020\226\274=DM\362>\334gU?|[\021?\360\306\237=\032\234|?:w[?\034?\345>\362\260#?\270ds?`\000\315=\310\346N>`D_?\250\327w>`\271\">\376E\"?H\336\211>f\265j?\3548\202>px\237>\030*x?\220\206\030>@\230\224=\350\342\026>XU9?\316Fp?P\215\017?n\025\r?\260:X?\356\224\027?\340\221c=@j-=\220b:>\006\361#?\204\005\374>\260\213\366>\200\222\343<\244\202\016?\354.\006?\260E\343=\240\214\203=`A\305=\030\034@?\210\202%>\022Z*?"
      }
    }
  }
}
node {
  name: "in_0/read"
  op: "Identity"
  input: "in_0"
  attr {
    key: "T"
    value {
      type: DT_FLOAT
    }
  }
  attr {
    key: "_class"
    value {
      list {
        s: "loc:@in_0"
      }
    }
  }
}
node {
  name: "in_1"
  op: "Const"
  attr {
    key: "dtype"
    value {
      type: DT_FLOAT
    }
  }
  attr {
    key: "value"
    value {
      tensor {
        dtype: DT_FLOAT
        tensor_shape {
          dim {
            size: 2
          }
          dim {
            size: 2
          }
          dim {
            size: 2
          }
          dim {
            size: 3
          }
          dim {
            size: 6
          }
        }
        tensor_content: "\006\220E?\202\226m?\346\013|?\330\262\367>\226\260$?@\243\032?\236n&?\244\333B?\334\260B?\360\035\312>p\002s?\322*\\?`\243I?\330\374d?\004w\355>\27077?h+\350>t7N?\312Ru?\262\205\007?*kU?\000\231\'<\370l\314>`\327\033>\270\034\266>\350\301$>\2145\366>\030\033$>\240\024\321>\240\341n?\360\352\232=&\265\022?bFn?\314j\365>\350O\262>\002\333t?\240\313\204=\364{\256>\260\322\334=\300\244\376=\350\212T?\374E`?(\005\266>`\315\322=\324\271\250>p H><ef?P?\250>0\313\216><\220\344>\322dw?H\322\224>\260\377s?\340&\242>\022\220y?0R\002>\020Y\003?<J\262>\220\270\273>\254o\344>\372\245M? \352%>\366cd?\024\241A?\354\013\354>(^Z>\244\352\342>\230\022)?4\206M?V^r?\004\352\247> (#?\2261m?t?\306>\200\327\004=\240\252l?FSu?,\2654?f\337\001?,\304T?\022\3171?\034\240\375>\300O\010=D)N?\200_\177<\234\261\021?0\010\007>t\017\240>\256\214x?\310\243A>(.\256>\244e\037?\026}D?to\227>\274\371\330>\312\027\n?,}\327>\3025^?\250\215n?\356*m?\300\004\250<\264\370n?\006/\026?*\311B?\026\326!?\010\'E>\260\375\362=\202\372H?V\2640?\360\267\242=\302Ks?(O\275>\244*\213>\2364K?V\330\005?\250zK>\000i+>\000k\005>\260I\233>\200\t\236>\\\211Z?(\202\002> \354\037>\266\261P?\320\0328>\360r\363>\260\212\305=PX\216>P{j?\372\365U?\340\201.>f\rS?\330n\361>:\010t?\214\372Q?X\373Y?\n\254]?\014\350\246>\240\237\234>`\324\350>\360l\032>\234\275\374>d\240\373>*0$?"
      }
    }
  }
}
node {
  name: "in_1/read"
  op: "Identity"
  input: "in_1"
  attr {
    key: "T"
    value {
      type: DT_FLOAT
    }
  }
  attr {
    key: "_class"
    value {
      list {
        s: "loc:@in_1"
      }
    }
  }
}
node {
  name: "Conv3DBackpropInputV2/input_sizes"
  op: "Const"
  attr {
    key: "dtype"
    value {
      type: DT_INT32
    }
  }
  attr {
    key: "value"
    value {
      tensor {
        dtype: DT_INT32
        tensor_shape {
          dim {
            size: 5
          }
        }
        tensor_content: "\001\000\000\000\020\000\000\000\020\000\000\000\020\000\000\000\003\000\000\000"
      }
    }
  }
}
node {
  name: "Conv3DBackpropInputV2"
  op: "Conv3DBackpropInputV2"
  input: "Conv3DBackpropInputV2/input_sizes"
  input: "in_1/read"
  input: "in_0/read"
  attr {
    key: "T"
    value {
      type: DT_FLOAT
    }
  }
  attr {
    key: "Tshape"
    value {
      type: DT_INT32
    }
  }
  attr {
    key: "data_format"
    value {
      s: "NDHWC"
    }
  }
  attr {
    key: "dilations"
    value {
      list {
        i: 1
        i: 1
        i: 1
        i: 1
        i: 1
      }
    }
  }
  attr {
    key: "padding"
    value {
      s: "SAME"
    }
  }
  attr {
    key: "strides"
    value {
      list {
        i: 1
        i: 2
        i: 2
        i: 2
        i: 1
      }
    }
  }
}
library {
}
