node {
  name: "in_0"
  op: "Const"
  attr {
    key: "dtype"
    value {
      type: DT_FLOAT
    }
  }
  attr {
    key: "value"
    value {
      tensor {
        dtype: DT_FLOAT
        tensor_shape {
          dim {
            size: 2
          }
          dim {
            size: 16
          }
          dim {
            size: 16
          }
          dim {
            size: 3
          }
        }
        tensor_content: "~^G?L\033M?\236p9?\220ol>\356%:?X\2708><q\001?b|d?\224\316\013?\314al?P@\257=,5K?\326\271(?\3566\016?`u#>0\024\236>\240{\036>\240h\360>\222o~?v|\034?\346+-?HM8>v\312,?p\375e>@\235P=\030\216\353>$\024T?\250\004q>H\250y?h\014V?(W\204>\014t\326>\016\3503?\366\226D? \213\t?\24019?D\300\211>\0008\312;\340\310\005=0\374\203=\\\302W?\300\325??\200\206\232=\270\337\037?\220\272\262>\256L\024?\266\256\022?\300\214:>\262Z$?\240\020j?\350\225\232>\304\372\266>\020\204.>\"\350V?8\370\013?\320W\230=\202\256f?\222N(?\200!\323>`Zz>8|\331>6\231\005?\n\3721?\240\345\372>H\001]>\006ut?\330\357\r>(\033\036>ZY\t?\200\002\\<\310\'\325>\350$\025> ]\322>h_~>\030{\252>D?\230>l\344)?\270\376\302>\212\314]?H!B>F\304@?\336\2618?\346A)?\330\037:?z\005\022?\354{\210>4\315>?\000\3675=\370\317\232>\344U\370>rUL?\200\260\305=\302\306H?\366\353\001?P\347\254=^CV?\2449\034?\254\267\353>~\326\033?\264\000\\?@t\353>\244\341+?\324\202\214>\320\336J>\264\033\324>\322:H?|s\263>V\010\001?p\233\361=$\253T?\320\006:>Z\035X?\204\343\001?x\353\344>\220\261\002?F\246*?l\345\203>h\253o>r\033.? \303\207>z\024\n?\220\032\360>\216W\035?\300\340\367=\214\343\203>\360\220\235=,\267\355>(\267&>\000wO>\2146\301>\240.O=\264>\261>\264o\022?P\264\253=\364}\330>\340\363p=zB\t?\034\203\363>\240\217\201>@\0076>p\275\231=F\316e?x\304\272>\334\353\234>D\235\362>6\2163?`\001\345>\306b\004?X\2242>\210\213\262>\316\243F?\212\372r?\310\037T> k_>^\350&?DN\236>\362Vt?P\236@>\3645u?\200\3026>\014\256v?\004N\367>\244)(?\360\245\253>V\356\177?RB\026?\032\036\023?\200\373\302<\340\257\226>\276X\006?,\177\026?H\003:?0@I>\374\251j?\310\374x?\\\256k?@{T=\020m\231>\000\254};\356\343C?\364\277\014?\334A\302>4\036\302>H\241\264>\034\037\223>\270\347N?`J\362>\014?\341>p\036)?\274a\031?\000\350_;\360\216\371>P\"!?\270\0011?\2404\030=V\255\030?\2401\035=h\253\026?\300\273*=\262T4?J\254|?\264Hv?\034\031\357>\322\212\017?\344]p?\270\256\276>\200ea=\210%\004?\350H\257>ZL#?\260\252\364=`R\004?\256q\017?\020\274\270>\224\222\001?x.\252>\244\361\037?\364C\354>,I\327>\274^\023?\024\022\037?\246?3?\320\221\244=\240\207#>\314\306\211>\3006r?D\0364?\314:\021?T\t??L\351R?\000\271\226;\000vK>V\223#?\034^\322>D\2576?\346\231\017?\264\0200?8\244o?\000\tE?4LX?\214`\302>\224\331\240>\254g\355>\310@\270>\360\302\274=\220\322\225=\320E\340=\030\375\033>|\001\020?h\315m?\036\037l?\320\216\246=\320\225\271=\240\365\006=$y\206>p\311\016>\370.\034>\350\200/>\242\352??\360\342F?\032\tB?H\3356?p\0374>\\\323\224>\362\342\032?`J\321=\300\242\220>\304\002@?\"\\\005?NBl?\260\235\024?\334\213\371>\206\245X?\200a\346>\206\300+?\204\333\032?p\250\313=\320C\304>\370q\301>0)\'>\222e}?\356\353\026?\314d^?Nu7?x\026_?\000\320\027?\020\356>>\242\026B?4\372\341>\262\343~?\310(A?\204\006;?\264\245\036?F\202:?\220n\217=\010\241{?\272\014t?\006\'!?4\344\341>B1u?\2749(?l\272\346>\364\360T?\350\350\001?\254\n\301>~\2558?\320\330Q>@f&?l\261D?\270%C>\320\253\203=\266|l?\340\014h?|E\345>\300\263\360=\320\345\256>F\3509?\000\023!>v\003t?\0308\200>\212&\016?\274\372\275>\210\363t>\274@\271>@\300\034=\336\302\033?\010\235+>d\341\362>p\236W?\234\365^?8\300\342>\200\363\332<\340\245\001>\020\250*>@l\274=>xL?(^\366>V\260|?\322\003i?\034\235\304>\240t\306=|\315_?\320\371\300=\274\246.?\254\375\377>Xnw>\004\246\010?\030r\324>\254\200\373>,\261p?\370\350d>t^\333>x\226\366>L\242\002?\252\313v?\330\316\342>\240\241N?\364\177U?\324\202r?<*\214>\340\021\220=\202-P?\320\264s?\000\350\226=\014\270\003?\0004\226<x\264\022>\320\334\373=\000\307\352;\210\363*>p_\240>\270\202\300>\004G\t?\224q\204>T\022p?B\354)?\010\205\000>DLx?<}s?j\337l?Hk>?\350$*?\200\3575=D8\221>\3624x?\222\355B?V\223i?p\313`>\030xZ>@R\007>\220:\234>\000\250\331=\236\0243?\264\354\370>\200\000\242=\334\000\321>PO\006?\320\2434?\244\017\016?\240\207\232=B5??\220\031\033?8y\003?\014\234\313>\210\363M?\356\370K?\252E|?B\257-?T\253\370>D\343x?\260\031)>\334\367o?D\303.?`S\336>\354\013w?\000\\\"=\320mI?j%z?pM=?z\373A?>{\026?\000\270*;@\271\312=@\327{=@\217\274=x\237<?\236\023}?\374\254\203>d\316\335>\024\215\267>,s\032?\006\214p?H\246\265>\000\315\304>\020\253|>d\342\320>\014i\253>\230z\017?t\371\251>\220\352\261>\250t)>\320R\225=\354\317\315>\034\253m?\346\327??\330\256D>\264\233\262>\350\264q?\364\332\n?LUl?\240yH=\240\254\036?\274\354\247>\220\255\t?\36668?\020o\023?\320\t\305= \362\353=\222E@?\014\027;?@Z\257<\0142%?:\205e?26C?\204\007Y?\204\376\316>\304\334\355> \037\267>\300i\363>\240\326.>\244\257\007?\220\007\254=v\336\037?\014G\230>`\225\010>\3661_?\240\271\036=\2643\226>|=\222>(\233\253>\026\342!?\240\365\301>\204\237$?b\327\002?\004n\306>\200ai>\014q\217>\342\267\017?`L\305>$\242x?\314\200\037?n\253\000?\230\026\026>\214\357\340>\000=7<\360(8>\2003\325>\234\337T?\374\321\321>6N\033?\016P<?\352R\003?,uj?\210\347+>\200\274\237<\030\252\005?\264J\\?\310\371\213>\334\266\006?\340tZ=pY\233>\026\220\023?\276\304\036?r\260.?\320D\364>\330\3248?\2702Y>\204\257\236>``\344=\364y\232>\030\350\274>l\306\367>\360\3611?\022\210J?l\273\322>\310>p?\320\224\274>X\226w>@\365/>\360\035A?P\n\255=\"CF?\350b\036?\252{\033?\220:\304>\230\277\203>\004\257W?t\216|? \024^>\344\341_?\332\345\030?8\253\345>P\2372?\204\367\327>\234\202\032?\\\351=?~Xj?vs\014?\206\375m?X~\001>8\361Q>\3108\225>\000Y\021<d\357\330>\234W\370>b)\177?>gv?0\251\375> \331k?\0009~>h\332A>\334\032\304>H\235\275>\250\303\323> oZ?P;\\?\000\002v?\216\3554?\224\222v?\204\367\345>\000el=.\0348?~\213\004?\362\027D?\230\030\370>\352\302y?\034\227\"?8M}>\270\030\243>\220\033\032?\340&\334>\316\001K?p\352\331>\200Vz<\310\256\374>\220\000\372>R\262j?\246\\y?`\3015=@\030g>xo\301>\220\200\035>P\373\347>\200\245\357=4f\232>\366\363\017?\224N(?\316\225]?\014\360\340>\314F\033?\220\247m>\000\340\302=\264\365\354>\000\2373<b\266\n?\004c\353>\212\\\r?\350\345\341>\216e)?N{;?\350\204\004>\360\205\240=\\\301t?\246,j?\264\252\022?x\335H>\010\365Z>\270\321\214>\300\216]=@(R>\266\326\021?HR\276>\020}\211>\344(\241>\260\003\220=\322\"y?\250\265\246>`\245\327=X\\\036?R+|?\270K\003?RJG?\360\265\313><\226\036?\014\355k?\342OT?T\354\206>\024\177\t?\332|H?,\274T?\216\360\000?T\005\257>V78?\26033>\300\334\024=T58?\310\350G>\010\202\255>\264]H?~>o?Px\336>\210\027\016>VT3?Z\204\005?nsI?\014\2071?\200\221\340>\256|\022?p\342~?\034\310\260>\2547\340>$\3653?\320|B?\270M\014>\200\016\261<\026\320\001?$\270o?\320\230\032?\010\355!>\340\340!?\256`n?\354}\331>\270j\033>\200\003`<\000\363?<dT-? wt?0J\254=\254n\247>\350\n\016>4\000\311>86\272>\276uz?\310\232\363>\260dJ>\344E\234>\210\261\274>\364\005b?\032\306s?\200\201\310>\242\253\026?VAP?,n\246>`\017\247=\370L:>\354\322@?\370CK?\244,|?p\203H>\344\264U?\266\207o?z\221\013?`\003\254=\272\022r?\240 \231=n\233\025?\";\177?\200\207\367=\204R\002?\200ek=\220\r\032>\3009\237>\300<\306<\274\272^?\232AA?\266\221@?F\\#?\320\331\036?@\265\202<\366\177\005?8\321\037?@\377G>\020\375(?\274\373\375>\232Z6?\266\306\005?\274\272o?\\\364\244>\300\225\013=\200\370&?\006zD?\250\337f>\202i\"? \200(=\370\004\177?\024%E?@\344\257<\360\260\004>d\214\000?\340HO=X\271I>\372\211h?xR\342>\034\351\236>\340\226\022>\272\224/?\354\377Z?\276\377+?\200MO>\\\322i?\nc9?\304Hz?\264\275n?\360\273\007>d\353\304>H0`>z\001k?\030\257\177>\334E`?\344a\013?\220\003\210>@dz=,#\202>\332e[?\030\t6?\000D\332=\000\304\220;\254\202\027?\230s\356>(\247\002?$\362\307>\270[\004?\270\335\t>\026 i?\004 \227>\320u\205=xQ+>\250\3442?J\317C?Z\'G?\010\027/? \3637>\360\334w>\376h\014?\n2\005?\200\357\002=\202\316\"?D\237\337>\002\t4?X\221@>\254\300v?\250,O>\210.i?\264\257(?\206k\021?\370E\263>:[z?`_x?\260}\303>\020\213\032?F\232+?\n\232\177?\232nD?\260\252\376>t\260\251>\234\020\271>$\"]?(t??0s\364>P\177\207>\320\277\275=\370\232\016?\200\001@<Le\037?\200\n\306>>\n<?\200\337\216=\232_\\?\034G\014?\\\202\025?@{\376<\326e\001?(\270d>\374|m?\000\341\223=`\016\023?p>\026>\350\177Y>,\004a?\362\3232?\2649z?\326\332\010?\362$\013?\244V\206>\3148A?\374J(?\240Qq=\274\013\275>\000\244\233:\300)\177>\260\244N>\352UY?\022.\001?0\311\261=\240\311\374=\224Ta?\3709l?\240\225\r?\340 \360>0}\016>\200\257\374<t\202*?\350\021f?\224GZ?d\205q?\250\230\324>PX\325>\260E\343=\2246\377>\320:\367=p.s?\350\364\004?$\221C?\262\"b?\322a$?\000\326c<2Ud?\270\374N?\336\342l?^\241A?\252xK?\000`\003=p|\325>\350\036\020>\250\r\030?H\341\340>\254\230\005?\310]e?$\305I?\004\367\003?\230d]>\030\3241?\300\311\361<\250\372v>\356H\035?ZZ[?\340\325\237>Vp\025?|L\237>j\006 ?Z\342Y?\024\345\204>\300\207(=\206\307E?p@8>\340\215\270>\316\001\016?\014j\224>\220\342\253=\332\251@?\250\032^>\00478?\330W\">8;\307>4\271\246>\320\263\350>\200\236\252=\220E\204=\030m!?\030\223\004>@\\\241<\004\362\354>\310\361$?\260_Y>\330\204\367>\004Q\266>`\372F=H\233\203>\324\230\226>\312+\'? \336(>\022\322j?\212zA?0\346T?`\316w=xt=?\\\350\007?\220\001,>\246P\014?\276\215J?\236\271I?HI\263>\344\262A?\334N\374>hk\024>\300\275\035? j\232>\246@$?l\036\200>\352\3165?\370\364\272>\330\022\331>\200\262%=\250-u>P\267\353=\314\312z?\200{~=\2202\210>\252\3701?\204\315i?\354\216\022?\340\273\304>x\362p?|\311b?P\300\253=r\225:?\020\014\260>dY\365>\366q>?0\002\023>n\336V?\030\2467>DR\215>0\200!>|u\337>\272_\037?\\\270\207>FA<?0;\300>\350\027A>X)e>|\311\316>\200\211?=z\375)? *\347=\\7\037?\\G\306> \206!=\242e}?\200\032\374=X\341/?\324\211\334>\304\220\004?2\0206?\330f\034>`\264\351>LYp?\302\241??\014o\244>\224^k?\256\274~?X\361\331>\350I\030?\220\321I?P8\261>\264\221\303>\360\336\351=\240\244\006>\200\311\177>\200\203\355=tb=?\226\257j?2\202\020?,\004\331>\010\206\036?\004.\310>2\355B?0\373\376=\352\250\002?\240I\200=\270\256\276>\020[J>\210M\300>\316\0109?H\355\357>\026\231t?\256\0139?\310\273K>\034\014;?\240\003\222>4\210\007? Q\240>\200\334\037=\024\032\260>\340x\310=\260\261\220=t\333D?\000\214O>P\347\211=n\211\023?\340\345\316=\014!;?\234hi?\034\362g?\200\361;<Hf\327>\220T\205>\320U\304=\2047\224>4\322\310>8gH?8\354:?JUq?\240*\362> \200R=\200&\274>\244\305\343>\344\266#?\320\202i?@\214\245<\334\302\242>\300(_>\324\2740?*1w?0\001<?\230q\">X\233\237>\270\023\376>L\246\210>\354\3205?\020\001\360>\360x\006>6/j?d\211\351>L\030F?\2008C?d\177\n?\342\3073?\3027\\?\000\224\325::3\002?`H\352>F\266\016?J\224\021? `\303=\200\322\254>\024\000\207>&\330+?\260\036K>$\016\037?\204\231O?\010>f>L\013\207>\\E\235>\340\376%=~\035G?\314\274>?\310V1>\\\221\336>\204`\231>\230\016y>\366\220Q?\026m\026?\324R6?\234\356`?X%J>D\245\352>\314\203\227>\344z\240>\2623G?\322\225h?\230\t\200>tsR?\330\213\263>x\332 ?$\024\004?\210\240\233>@{o>\256C\007?\010\270\243>^L@?\344/9?\340Va>x\3357?r\3304?\3542\025?\3547%?\360I\323>\354\265\264> \2646>\212\027`?r)\025?\300\n\016>\000\352\232=h\311\013?\360X\276=\304\337\216>\340\301C?4\244d?|\370a?:\267Q?\274\010M?\360\305\365=\322&5?\306Ba?`h\025?\000\367\325<\346\317I?\206b#?\340 V>\352\206^?P\267\212>\334?w?\"\310(?p\250\360=`\017(>z\227J?l\033\350>P[\273>Z\355M?\024\273\317>\334\262S?|\340\250>,\375b?r\327\r?\\2!?pw9?\300\023\273>H2z?8\307Q>V#\177?\220l\311=0\031\264>\250\373\344>\350K\025?h\324\264>(\002\267>\0101<?N{X?\324M>?\300I\r>\320x\340>f\373v?\264:\334>.B\025?HeO?\200\363:<t5\332>\024\256\235>\240d\254=(i\177>\0306A>zqs?hMC>\376\223=?\206\270F?\250\306I?\204\336B?xW\242>\210pG>l\373\257>\332\346\t?\356\"\023?p\227\245=\334\340\200>\000\202_=\344)_?\264\265\253>L3\026?: j?\036:o?$\254\272>\306|_?@H\023>\264\353\301>\020\346W?\242\361??8\214\323>p\370\022>\020x\213>p\016\224>\240nC>4\214m?:\355\026?\360{\207>D\211u?^]_?t\232 ?`Ry?\010\255D>\220Wz?\304\005=?\262u.? \224\035?X\314$?\344\322q?D\332-?H\227\315>\2246\312>\366e\r?\020\365\242=\200Vh<\256\254N?$e|?\374\204\016?L_\231>8\271\216>\210D\307>>\313\005?\004\222\220>\312\005t?p[X>\254\275\036?\220>\002?\300\212\007=\250\001u?Lz\237>\300\301\322>\250\230\262>n\270g?45\325>\204\022A?\374\030\257>V\261\030?,\210\221>ty\\?$h\003?NQ\026?\246-l?\030\306y>\\l\307>H$u>\316\362\016?\\\364\205>\270\320\004?(a*>l9\227>\"\325M?P\341\335=\"\261s?\224r\305>\346\017\026?p\2173?Pw2>\030gx?\212\035M?\350\243\353>f\242/?P\242\273>\300j\001=,j\315>\266\264z?\004\225B?P\000\374=\224\025\201>@S\252=,\311\353>P\035\346>\210\315Z?\200$\034=\200\362\260<&\242??\324\302\331>\272\271\n?\340s\033?T\316\201>\336MA?D\375=?h\346\327>\0168x?<L\024?Pmn?\210\034a>\254\223>?`\035R?\3747i?\324\177\270>\230\325c>\000\373j<\000\004\272:\360\241\033?\330C\370>P\006\202>\204\024W?L\335\230>\334o\002?\224A\370>j\323u?\006J{?:\177_?&rp?\344\023\327>\300\336D=\362\215\"?\220$\320>\034\032m?\004\276j?\014uL?\334\251\336>\032\003\\?p\354\224>\330\261\037>\354\210,?\250\321&?\000\342\202=\334\024\"?\2746\254>\"\371i?\342\014U?Z\t\030?x\310\032?\022mT?r)L?\204\215\023?0\371{>\274H\214>:\304g?`a\266=\022N9?`\031\253>\244\221]?\006\257c?\200\326\271>\000\361\271<\242\267]?2\2153?\250x4?\220\334\236>\006\211C?\212\3637?\000\312*<@\332\267<\230\202\005>\230\271\251>h\307\006>\324\343\224>\362\361a?\240\224\035?\000s\264;\200\345[<\274\356\314>\220\337N?\020\033\247>\320U\320=0\254\351=\020\222\373>4<}?&H\007?\270y^?\030\330\256>Z\265\036?0l\305=~\321z?\270\000\000>\352\004}?\010~5>\340\217\016>\270F\305>\240},>\004@\000?(h/>\226\300S?@T3=\020E\026?\300&\036>\346}{?B\\S?\022$.?\364\023\246>Pqm?\320\335\316>\252\300\014?\330\017M>\334p\272>XC >\354\256\021?\352\346f?\254\007A?\364\314\236>(mn>\3000\030=\352\3501?\304eX?\260\271\374>\332y-?h\363\237>`\232\234=\246p\"?\200\356\315><\307\340>\360\323,>\302\344\026?H\t\227>\334B\312>\330BP?\240\330*=\316Q$?\0000s>`\277\243>\034\247]?\312j\003?v\215{?\324\021\237>\326\030\n?\354\237\036? \257\215=\020\205P>\370Nf>TJi?X\356\215>\230\202-?@\200y=\244\327\330>,\253\'?&\271\023?R\271S?|a\274>\034\234\023?\330aB?\260\014\n?\334D=?\234Y\246>n5/?:\373\t?\030\255\r?\332\nP?\020\303\316=t2\235>\310b/>(\301\306>\034\350\244>\274\263\355>\300P\205>\300\373}=\340\334\022?\204\314\325>@\301\363>\266\236+?\210t|?$\020\026?\200\215\223=\\+q?\206\346l?\234Y`?\256\217\037?\\\230\247>\264\320\255>@\236\034>h\200\216>\002\3324?\016<??4!\252>t\223\312>`X\255=\274W\002?\010` >6\373 ?\222w]?\274s\241> p5?\224`\004?\360 \261>,\237\337>\260\360\027?\200\327J=\200\257+>\234=\220> (\027=|P\261>\270Zq?@5\t>\024\304\300>.\344\024?\200\266\002>H:\201>\000\263\034<\350\361\246>\000\200\247<\360\231\323=\362\224q?X\004u?\364\225\320>\2021{?P4v>\024u\257>\274\332\005?\276Jj?\300\003\250<\200\310%?\216\366\t?\\\277\"?\034!\337>\260s\275=L;\232>X\333,?\000\341\024=l^\257>*\371_?\210\206`>\224\265\010?\312k)?l\032\034?\200*O>\2701\265>\270\007\255>H\367\252>"
      }
    }
  }
}
node {
  name: "in_0/read"
  op: "Identity"
  input: "in_0"
  attr {
    key: "T"
    value {
      type: DT_FLOAT
    }
  }
  attr {
    key: "_class"
    value {
      list {
        s: "loc:@in_0"
      }
    }
  }
}
node {
  name: "adjust_contrast/contrast_factor"
  op: "Const"
  attr {
    key: "dtype"
    value {
      type: DT_FLOAT
    }
  }
  attr {
    key: "value"
    value {
      tensor {
        dtype: DT_FLOAT
        tensor_shape {
        }
        float_val: 2.0
      }
    }
  }
}
node {
  name: "adjust_contrast"
  op: "AdjustContrastv2"
  input: "in_0/read"
  input: "adjust_contrast/contrast_factor"
  attr {
    key: "T"
    value {
      type: DT_FLOAT
    }
  }
}
node {
  name: "adjust_contrast/Identity"
  op: "Identity"
  input: "adjust_contrast"
  attr {
    key: "T"
    value {
      type: DT_FLOAT
    }
  }
}
library {
}
