node {
  name: "in_0"
  op: "Const"
  attr {
    key: "dtype"
    value {
      type: DT_FLOAT
    }
  }
  attr {
    key: "value"
    value {
      tensor {
        dtype: DT_FLOAT
        tensor_shape {
          dim {
            size: 256
          }
          dim {
            size: 256
          }
          dim {
            size: 3
          }
        }
        tensor_content: "~^G?L\033M?\236p9?\220ol>\356%:?X\2708><q\001?b|d?\224\316\013?\314al?P@\257=,5K?\326\271(?\3566\016?`u#>0\024\236>\240{\036>\240h\360>\222o~?v|\034?\346+-?HM8>v\312,?p\375e>@\235P=\030\216\353>$\024T?\250\004q>H\250y?h\014V?(W\204>\014t\326>\016\3503?\366\226D? \213\t?\24019?D\300\211>\0008\312;\340\310\005=0\374\203=\\\302W?\300\325??\200\206\232=\270\337\037?\220\272\262>\256L\024?\266\256\022?\300\214:>\262Z$?\240\020j?\350\225\232>\304\372\266>\020\204.>\"\350V?8\370\013?\320W\230=\202\256f?\222N(?\200!\323>`Zz>8|\331>6\231\005?\n\3721?\240\345\372>H\001]>\006ut?\330\357\r>(\033\036>ZY\t?\200\002\\<\310\'\325>\350$\025> ]\322>h_~>\030{\252>D?\230>l\344)?\270\376\302>\212\314]?H!B>F\304@?\336\2618?\346A)?\330\037:?z\005\022?\354{\210>4\315>?\000\3675=\370\317\232>\344U\370>rUL?\200\260\305=\302\306H?\366\353\001?P\347\254=^CV?\2449\034?\254\267\353>~\326\033?\264\000\\?@t\353>\244\341+?\324\202\214>\320\336J>\264\033\324>\322:H?|s\263>V\010\001?p\233\361=$\253T?\320\006:>Z\035X?\204\343\001?x\353\344>\220\261\002?F\246*?l\345\203>h\253o>r\033.? \303\207>z\024\n?\220\032\360>\216W\035?\300\340\367=\214\343\203>\360\220\235=,\267\355>(\267&>\000wO>\2146\301>\240.O=\264>\261>\264o\022?P\264\253=\364}\330>\340\363p=zB\t?\034\203\363>\240\217\201>@\0076>p\275\231=F\316e?x\304\272>\334\353\234>D\235\362>6\2163?`\001\345>\306b\004?X\2242>\210\213\262>\316\243F?\212\372r?\310\037T> k_>^\350&?DN\236>\362Vt?P\236@>\3645u?\200\3026>\014\256v?\004N\367>\244)(?\360\245\253>V\356\177?RB\026?\032\036\023?\200\373\302<\340\257\226>\276X\006?,\177\026?H\003:?0@I>\374\251j?\310\374x?\\\256k?@{T=\020m\231>\000\254};\356\343C?\364\277\014?\334A\302>4\036\302>H\241\264>\034\037\223>\270\347N?`J\362>\014?\341>p\036)?\274a\031?\000\350_;\360\216\371>P\"!?\270\0011?\2404\030=V\255\030?\2401\035=h\253\026?\300\273*=\262T4?J\254|?\264Hv?\034\031\357>\322\212\017?\344]p?\270\256\276>\200ea=\210%\004?\350H\257>ZL#?\260\252\364=`R\004?\256q\017?\020\274\270>\224\222\001?x.\252>\244\361\037?\364C\354>,I\327>\274^\023?\024\022\037?\246?3?\320\221\244=\240\207#>\314\306\211>\3006r?D\0364?\314:\021?T\t??L\351R?\000\271\226;\000vK>V\223#?\034^\322>D\2576?\346\231\017?\264\0200?8\244o?\000\tE?4LX?\214`\302>\224\331\240>\254g\355>\310@\270>\360\302\274=\220\322\225=\320E\340=\030\375\033>|\001\020?h\315m?\036\037l?\320\216\246=\320\225\271=\240\365\006=$y\206>p\311\016>\370.\034>\350\200/>\242\352??\360\342F?\032\tB?H\3356?p\0374>\\\323\224>\362\342\032?`J\321=\300\242\220>\304\002@?\"\\\005?NBl?\260\235\024?\334\213\371>\206\245X?\200a\346>\206\300+?\204\333\032?p\250\313=\320C\304>\370q\301>0)\'>\222e}?\356\353\026?\314d^?Nu7?x\026_?\000\320\027?\020\356>>\242\026B?4\372\341>\262\343~?\310(A?\204\006;?\264\245\036?F\202:?\220n\217=\010\241{?\272\014t?\006\'!?4\344\341>B1u?\2749(?l\272\346>\364\360T?\350\350\001?\254\n\301>~\2558?\320\330Q>@f&?l\261D?\270%C>\320\253\203=\266|l?\340\014h?|E\345>\300\263\360=\320\345\256>F\3509?\000\023!>v\003t?\0308\200>\212&\016?\274\372\275>\210\363t>\274@\271>@\300\034=\336\302\033?\010\235+>d\341\362>p\236W?\234\365^?8\300\342>\200\363\332<\340\245\001>\020\250*>@l\274=>xL?(^\366>V\260|?\322\003i?\034\235\304>\240t\306=|\315_?\320\371\300=\274\246.?\254\375\377>Xnw>\004\246\010?\030r\324>\254\200\373>,\261p?\370\350d>t^\333>x\226\366>L\242\002?\252\313v?\330\316\342>\240\241N?\364\177U?\324\202r?<*\214>\340\021\220=\202-P?\320\264s?\000\350\226=\014\270\003?\0004\226<x\264\022>\320\334\373=\000\307\352;\210\363*>p_\240>\270\202\300>\004G\t?\224q\204>T\022p?B\354)?\010\205\000>DLx?<}s?j\337l?Hk>?\350$*?\200\3575=D8\221>\3624x?\222\355B?V\223i?p\313`>\030xZ>@R\007>\220:\234>\000\250\331=\236\0243?\264\354\370>\200\000\242=\334\000\321>PO\006?\320\2434?\244\017\016?\240\207\232=B5??\220\031\033?8y\003?\014\234\313>\210\363M?\356\370K?\252E|?B\257-?T\253\370>D\343x?\260\031)>\334\367o?D\303.?`S\336>\354\013w?\000\\\"=\320mI?j%z?pM=?z\373A?>{\026?\000\270*;@\271\312=@\327{=@\217\274=x\237<?\236\023}?\374\254\203>d\316\335>\024\215\267>,s\032?\006\214p?H\246\265>\000\315\304>\020\253|>d\342\320>\014i\253>\230z\017?t\371\251>\220\352\261>\250t)>\320R\225=\354\317\315>\034\253m?\346\327??\330\256D>\264\233\262>\350\264q?\364\332\n?LUl?\240yH=\240\254\036?\274\354\247>\220\255\t?\36668?\020o\023?\320\t\305= \362\353=\222E@?\014\027;?@Z\257<\0142%?:\205e?26C?\204\007Y?\204\376\316>\304\334\355> \037\267>\300i\363>\240\326.>\244\257\007?\220\007\254=v\336\037?\014G\230>`\225\010>\3661_?\240\271\036=\2643\226>|=\222>(\233\253>\026\342!?\240\365\301>\204\237$?b\327\002?\004n\306>\200ai>\014q\217>\342\267\017?`L\305>$\242x?\314\200\037?n\253\000?\230\026\026>\214\357\340>\000=7<\360(8>\2003\325>\234\337T?\374\321\321>6N\033?\016P<?\352R\003?,uj?\210\347+>\200\274\237<\030\252\005?\264J\\?\310\371\213>\334\266\006?\340tZ=pY\233>\026\220\023?\276\304\036?r\260.?\320D\364>\330\3248?\2702Y>\204\257\236>``\344=\364y\232>\030\350\274>l\306\367>\360\3611?\022\210J?l\273\322>\310>p?\320\224\274>X\226w>@\365/>\360\035A?P\n\255=\"CF?\350b\036?\252{\033?\220:\304>\230\277\203>\004\257W?t\216|? \024^>\344\341_?\332\345\030?8\253\345>P\2372?\204\367\327>\234\202\032?\\\351=?~Xj?vs\014?\206\375m?X~\001>8\361Q>\3108\225>\000Y\021<d\357\330>\234W\370>b)\177?>gv?0\251\375> \331k?\0009~>h\332A>\334\032\304>H\235\275>\250\303\323> oZ?P;\\?\000\002v?\216\3554?\224\222v?\204\367\345>\000el=.\0348?~\213\004?\362\027D?\230\030\370>\352\302y?\034\227\"?8M}>\270\030\243>\220\033\032?\340&\334>\316\001K?p\352\331>\200Vz<\310\256\374>\220\000\372>R\262j?\246\\y?`\3015=@\030g>xo\301>\220\200\035>P\373\347>\200\245\357=4f\232>\366\363\017?\224N(?\316\225]?\014\360\340>\314F\033?\220\247m>\000\340\302=\264\365\354>\000\2373<b\266\n?\004c\353>\212\\\r?\350\345\341>\216e)?N{;?\350\204\004>\360\205\240=\\\301t?\246,j?\264\252\022?x\335H>\010\365Z>\270\321\214>\300\216]=@(R>\266\326\021?HR\276>\020}\211>\344(\241>\260\003\220=\322\"y?\250\265\246>`\245\327=X\\\036?R+|?\270K\003?RJG?\360\265\313><\226\036?\014\355k?\342OT?T\354\206>\024\177\t?\332|H?,\274T?\216\360\000?T\005\257>V78?\26033>\300\334\024=T58?\310\350G>\010\202\255>\264]H?~>o?Px\336>\210\027\016>VT3?Z\204\005?nsI?\014\2071?\200\221\340>\256|\022?p\342~?\034\310\260>\2547\340>$\3653?\320|B?\270M\014>\200\016\261<\026\320\001?$\270o?\320\230\032?\010\355!>\340\340!?\256`n?\354}\331>\270j\033>\200\003`<\000\363?<dT-? wt?0J\254=\254n\247>\350\n\016>4\000\311>86\272>\276uz?\310\232\363>\260dJ>\344E\234>\210\261\274>\364\005b?\032\306s?\200\201\310>\242\253\026?VAP?,n\246>`\017\247=\370L:>\354\322@?\370CK?\244,|?p\203H>\344\264U?\266\207o?z\221\013?`\003\254=\272\022r?\240 \231=n\233\025?\";\177?\200\207\367=\204R\002?\200ek=\220\r\032>\3009\237>\300<\306<\274\272^?\232AA?\266\221@?F\\#?\320\331\036?@\265\202<\366\177\005?8\321\037?@\377G>\020\375(?\274\373\375>\232Z6?\266\306\005?\274\272o?\\\364\244>\300\225\013=\200\370&?\006zD?\250\337f>\202i\"? \200(=\370\004\177?\024%E?@\344\257<\360\260\004>d\214\000?\340HO=X\271I>\372\211h?xR\342>\034\351\236>\340\226\022>\272\224/?\354\377Z?\276\377+?\200MO>\\\322i?\nc9?\304Hz?\264\275n?\360\273\007>d\353\304>H0`>z\001k?\030\257\177>\334E`?\344a\013?\220\003\210>@dz=,#\202>\332e[?\030\t6?\000D\332=\000\304\220;\254\202\027?\230s\356>(\247\002?$\362\307>\270[\004?\270\335\t>\026 i?\004 \227>\320u\205=xQ+>\250\3442?J\317C?Z\'G?\010\027/? \3637>\360\334w>\376h\014?\n2\005?\200\357\002=\202\316\"?D\237\337>\002\t4?X\221@>\254\300v?\250,O>\210.i?\264\257(?\206k\021?\370E\263>:[z?`_x?\260}\303>\020\213\032?F\232+?\n\232\177?\232nD?\260\252\376>t\260\251>\234\020\271>$\"]?(t??0s\364>P\177\207>\320\277\275=\370\232\016?\200\001@<Le\037?\200\n\306>>\n<?\200\337\216=\232_\\?\034G\014?\\\202\025?@{\376<\326e\001?(\270d>\374|m?\000\341\223=`\016\023?p>\026>\350\177Y>,\004a?\362\3232?\2649z?\326\332\010?\362$\013?\244V\206>\3148A?\374J(?\240Qq=\274\013\275>\000\244\233:\300)\177>\260\244N>\352UY?\022.\001?0\311\261=\240\311\374=\224Ta?\3709l?\240\225\r?\340 \360>0}\016>\200\257\374<t\202*?\350\021f?\224GZ?d\205q?\250\230\324>PX\325>\260E\343=\2246\377>\320:\367=p.s?\350\364\004?$\221C?\262\"b?\322a$?\000\326c<2Ud?\270\374N?\336\342l?^\241A?\252xK?\000`\003=p|\325>\350\036\020>\250\r\030?H\341\340>\254\230\005?\310]e?$\305I?\004\367\003?\230d]>\030\3241?\300\311\361<\250\372v>\356H\035?ZZ[?\340\325\237>Vp\025?|L\237>j\006 ?Z\342Y?\024\345\204>\300\207(=\206\307E?p@8>\340\215\270>\316\001\016?\014j\224>\220\342\253=\332\251@?\250\032^>\00478?\330W\">8;\307>4\271\246>\320\263\350>\200\236\252=\220E\204=\030m!?\030\223\004>@\\\241<\004\362\354>\310\361$?\260_Y>\330\204\367>\004Q\266>`\372F=H\233\203>\324\230\226>\312+\'? \336(>\022\322j?\212zA?0\346T?`\316w=xt=?\\\350\007?\220\001,>\246P\014?\276\215J?\236\271I?HI\263>\344\262A?\334N\374>hk\024>\300\275\035? j\232>\246@$?l\036\200>\352\3165?\370\364\272>\330\022\331>\200\262%=\250-u>P\267\353=\314\312z?\200{~=\2202\210>\252\3701?\204\315i?\354\216\022?\340\273\304>x\362p?|\311b?P\300\253=r\225:?\020\014\260>dY\365>\366q>?0\002\023>n\336V?\030\2467>DR\215>0\200!>|u\337>\272_\037?\\\270\207>FA<?0;\300>\350\027A>X)e>|\311\316>\200\211?=z\375)? *\347=\\7\037?\\G\306> \206!=\242e}?\200\032\374=X\341/?\324\211\334>\304\220\004?2\0206?\330f\034>`\264\351>LYp?\302\241??\014o\244>\224^k?\256\274~?X\361\331>\350I\030?\220\321I?P8\261>\264\221\303>\360\336\351=\240\244\006>\200\311\177>\200\203\355=tb=?\226\257j?2\202\020?,\004\331>\010\206\036?\004.\310>2\355B?0\373\376=\352\250\002?\240I\200=\270\256\276>\020[J>\210M\300>\316\0109?H\355\357>\026\231t?\256\0139?\310\273K>\034\014;?\240\003\222>4\210\007? Q\240>\200\334\037=\024\032\260>\340x\310=\260\261\220=t\333D?\000\214O>P\347\211=n\211\023?\340\345\316=\014!;?\234hi?\034\362g?\200\361;<Hf\327>\220T\205>\320U\304=\2047\224>4\322\310>8gH?8\354:?JUq?\240*\362> \200R=\200&\274>\244\305\343>\344\266#?\320\202i?@\214\245<\334\302\242>\300(_>\324\2740?*1w?0\001<?\230q\">X\233\237>\270\023\376>L\246\210>\354\3205?\020\001\360>\360x\006>6/j?d\211\351>L\030F?\2008C?d\177\n?\342\3073?\3027\\?\000\224\325::3\002?`H\352>F\266\016?J\224\021? `\303=\200\322\254>\024\000\207>&\330+?\260\036K>$\016\037?\204\231O?\010>f>L\013\207>\\E\235>\340\376%=~\035G?\314\274>?\310V1>\\\221\336>\204`\231>\230\016y>\366\220Q?\026m\026?\324R6?\234\356`?X%J>D\245\352>\314\203\227>\344z\240>\2623G?\322\225h?\230\t\200>tsR?\330\213\263>x\332 ?$\024\004?\210\240\233>@{o>\256C\007?\010\270\243>^L@?\344/9?\340Va>x\3357?r\3304?\3542\025?\3547%?\360I\323>\354\265\264> \2646>\212\027`?r)\025?\300\n\016>\000\352\232=h\311\013?\360X\276=\304\337\216>\340\301C?4\244d?|\370a?:\267Q?\274\010M?\360\305\365=\322&5?\306Ba?`h\025?\000\367\325<\346\317I?\206b#?\340 V>\352\206^?P\267\212>\334?w?\"\310(?p\250\360=`\017(>z\227J?l\033\350>P[\273>Z\355M?\024\273\317>\334\262S?|\340\250>,\375b?r\327\r?\\2!?pw9?\300\023\273>H2z?8\307Q>V#\177?\220l\311=0\031\264>\250\373\344>\350K\025?h\324\264>(\002\267>\0101<?N{X?\324M>?\300I\r>\320x\340>f\373v?\264:\334>.B\025?HeO?\200\363:<t5\332>\024\256\235>\240d\254=(i\177>\0306A>zqs?hMC>\376\223=?\206\270F?\250\306I?\204\336B?xW\242>\210pG>l\373\257>\332\346\t?\356\"\023?p\227\245=\334\340\200>\000\202_=\344)_?\264\265\253>L3\026?: j?\036:o?$\254\272>\306|_?@H\023>\264\353\301>\020\346W?\242\361??8\214\323>p\370\022>\020x\213>p\016\224>\240nC>4\214m?:\355\026?\360{\207>D\211u?^]_?t\232 ?`Ry?\010\255D>\220Wz?\304\005=?\262u.? \224\035?X\314$?\344\322q?D\332-?H\227\315>\2246\312>\366e\r?\020\365\242=\200Vh<\256\254N?$e|?\374\204\016?L_\231>8\271\216>\210D\307>>\313\005?\004\222\220>\312\005t?p[X>\254\275\036?\220>\002?\300\212\007=\250\001u?Lz\237>\300\301\322>\250\230\262>n\270g?45\325>\204\022A?\374\030\257>V\261\030?,\210\221>ty\\?$h\003?NQ\026?\246-l?\030\306y>\\l\307>H$u>\316\362\016?\\\364\205>\270\320\004?(a*>l9\227>\"\325M?P\341\335=\"\261s?\224r\305>\346\017\026?p\2173?Pw2>\030gx?\212\035M?\350\243\353>f\242/?P\242\273>\300j\001=,j\315>\266\264z?\004\225B?P\000\374=\224\025\201>@S\252=,\311\353>P\035\346>\210\315Z?\200$\034=\200\362\260<&\242??\324\302\331>\272\271\n?\340s\033?T\316\201>\336MA?D\375=?h\346\327>\0168x?<L\024?Pmn?\210\034a>\254\223>?`\035R?\3747i?\324\177\270>\230\325c>\000\373j<\000\004\272:\360\241\033?\330C\370>P\006\202>\204\024W?L\335\230>\334o\002?\224A\370>j\323u?\006J{?:\177_?&rp?\344\023\327>\300\336D=\362\215\"?\220$\320>\034\032m?\004\276j?\014uL?\334\251\336>\032\003\\?p\354\224>\330\261\037>\354\210,?\250\321&?\000\342\202=\334\024\"?\2746\254>\"\371i?\342\014U?Z\t\030?x\310\032?\022mT?r)L?\204\215\023?0\371{>\274H\214>:\304g?`a\266=\022N9?`\031\253>\244\221]?\006\257c?\200\326\271>\000\361\271<\242\267]?2\2153?\250x4?\220\334\236>\006\211C?\212\3637?\000\312*<@\332\267<\230\202\005>\230\271\251>h\307\006>\324\343\224>\362\361a?\240\224\035?\000s\264;\200\345[<\274\356\314>\220\337N?\020\033\247>\320U\320=0\254\351=\020\222\373>4<}?&H\007?\270y^?\030\330\256>Z\265\036?0l\305=~\321z?\270\000\000>\352\004}?\010~5>\340\217\016>\270F\305>\240},>\004@\000?(h/>\226\300S?@T3=\020E\026?\300&\036>\346}{?B\\S?\022$.?\364\023\246>Pqm?\320\335\316>\252\300\014?\330\017M>\334p\272>XC >\354\256\021?\352\346f?\254\007A?\364\314\236>(mn>\3000\030=\352\3501?\304eX?\260\271\374>\332y-?h\363\237>`\232\234=\246p\"?\200\356\315><\307\340>\360\323,>\302\344\026?H\t\227>\334B\312>\330BP?\240\330*=\316Q$?\0000s>`\277\243>\034\247]?\312j\003?v\215{?\324\021\237>\326\030\n?\354\237\036? \257\215=\020\205P>\370Nf>TJi?X\356\215>\230\202-?@\200y=\244\327\330>,\253\'?&\271\023?R\271S?|a\274>\034\234\023?\330aB?\260\014\n?\334D=?\234Y\246>n5/?:\373\t?\030\255\r?\332\nP?\020\303\316=t2\235>\310b/>(\301\306>\034\350\244>\274\263\355>\300P\205>\300\373}=\340\334\022?\204\314\325>@\301\363>\266\236+?\210t|?$\020\026?\200\215\223=\\+q?\206\346l?\234Y`?\256\217\037?\\\230\247>\264\320\255>@\236\034>h\200\216>\002\3324?\016<??4!\252>t\223\312>`X\255=\274W\002?\010` >6\373 ?\222w]?\274s\241> p5?\224`\004?\360 \261>,\237\337>\260\360\027?\200\327J=\200\257+>\234=\220> (\027=|P\261>\270Zq?@5\t>\024\304\300>.\344\024?\200\266\002>H:\201>\000\263\034<\350\361\246>\000\200\247<\360\231\323=\362\224q?X\004u?\364\225\320>\2021{?P4v>\024u\257>\274\332\005?\276Jj?\300\003\250<\200\310%?\216\366\t?\\\277\"?\034!\337>\260s\275=L;\232>X\333,?\000\341\024=l^\257>*\371_?\210\206`>\224\265\010?\312k)?l\032\034?\200*O>\2701\265>\270\007\255>H\367\252>Lv\362>\030Lm>\314\211N?\210\364\316>\214\314\347>\000\365\345=\306\342Q?\350\323\340>$\266\270>\360\036j?\300\215P>t&\200>>\354\"?8(\307>&\235g?\000\371\334>\000\260\026>\000\036#>$\244#?\312\246\013?Z<#?\224\'\335>\250M\377>\n\333\032?\260\013v>\354\324\304>\234[\274>\236\034T?\306j~?\010k\306>\350-e>\320\343\275>$dI?\000\352[<\240Xi?\240\\\364=X\0261>\234H\332>\340;\330=\262\225Q?\2407\314>\340\244D=\266\254\020?\310\\T?\016I*?\302}2?rS6?\014\255\210>\210\'$?\000\002\036>\220\305\335=0>\003?\374i\014?\234\374f?\260m??\212Q{?\024\016\232>^\227\021?\230\024c?\304\177 ?l\235&?\356z\030?\302\274>?B\345G?X\350H>\204\263\315>d\"\020?\024T\327>\352Qe?\240\224\024?\370\367\006>\210\013\357>XTY>x\006@>\270\0277>\364\200\251>\370\225\210>x\240i?|\007\210>\000\323\355<\324H\001?\234\002\275>\246\177\006?\004\311\253>\030-\300>\214:G?\204\226[?\260\371\203>Z\206;?*Hc?P\262U>\\\220J?\342\205\034?\250\202\013?\274\360c?n\240,?`\202\270>|yB?\264\211\022?P!8?D\006L?\240\336x?\276q,?\210\307\314>`\320\366=\200;\315>\022\3243?X@@?6*\t?\014\026\210>\220\273\200>\0261}?\n\020U?\304\001\240>\320\243\227>\020\274{>\3708\017?pl\325>\334\241\251>x\324\"?\306\331u?@\221\237<\340KL=:\0278?\020\032\253>\\\202X?\364Z\227>\230\n\271>tn\366>\000\217\315<hpN>\2205e>\224z=?\350W\350>\"5 ?d\366h?4\001\332>h\203\376>0\025\033>\200N\303<^\003j?\034\347\376>\206Ox?\302iR?\200\370\307<8\377\363>\240\340}>2\316\037?\260\035\301>\222\342\177?\244\231\225>\214\000a?(cl>\254\354\212>\320}$>\020h\220>\244\026\270><\353I?z\2555?\230\305N?\324\257f?@\326\363=\2264_?\340\3556>\374\325\325>\200\005\017>0\334\004?\002A\021?\024B\243>\330$\351>\362\026!?\362\247\000?\240\031\251=\244k(?Z\325R?\0241\"?\274\177\037?\310\370J>\260\272$? \016\264=\352W0? \350`=\304\362\343>\342\3732?2(/?\020\357\203>\200\032\036>\344\315/?2$T?\220o\254>PI\177?\3509Y?\024\252\204>\254g\036?\240\205[=\310J\206>(4\326>\250\310*?h@n?\216%d?@\032c?pg\242>\220\233\316=\330\021\306>\350)\255>\354\227\010?F\340`?h\271\177?j\016J?\2105C>\260\332\321>\240a,=\260\026{?\004\025\241>\320\247\342=\344*\004?\320\275\270=\312 U?\200{9<(bK>H\237->\310\024D?\352\376&?B\3136?\200b\324>>\262\022?@\0061=\206\342w?bV|?\300\376\374=\262\233\026?\356\255\023?\236\304S?t\375\262>\340\211a?4Td?p\242\325>X\322j>\340\234\210>\370\"\323>\234\307\323>F\347Q?`/0=^\027l?\200r\313=Z\275t?\\\304\305>\310i\031>(\020>?\270:r>d$\364>\024\3034?DE\344>h]\033?\270\213\307>@ Q>$\031\351>\224~\010?\200d@? N}=\030?\021?\0040\303>|\3258?\250\375\242>\020\226\032?8\356\273>x\t\224>P\0263?\262z<?b\326h?\200\222q>\2567{?83\246>\010\177V>\010\301v?\220\200\316>$\200\262>\242)/?`)o?\234~\237>\000\341\267;\200jw>\244\031\352>\300\236\252=`\223~=\2226&?\214\2771?\022&Q?\260\233#>bC(?\206\330n?\272\376\177?D\034\333>8\377S>X\341\226>\262;!?\264\360m?\324>!?\372\242Y?\010,\325>V\331{?\314&\034?\260(\312>\300r\250> \226z=\000\014\323=\374d\306>\254\214P?\270a\024>\000\203d<\000\314\254;\000\356\r?`\312g=\350\3714?\256\'x?\332,2?\340F\034>(s\271>\200T\374=0\356d?\360\351\016?\310\002[>p\313\277=\020&\357= \206\303>\320\350b?\376}I?Hhn>\"\315Q?2Oj?`~\233=\014\343X?\354J\201>p\222\305>\000\'\277<8\010\266>t8\360>x\250\316>\240\222\314>p\344}>\300+\321=H\246\\?\304}\304>\272\302`?\000ac<\200\013\017?\360\237\246>\250n\232>\242gq?L$\272>\332\010\004?\\\245 ?\206\3447?\3603/>\200;\215=\336\"\013?~\'D?@\315J>(mm>\000v\234<J\200 ?\200(\330>\000\375\246;\340\316/>\300\366\266>$\243\324>b\367,?\204a\013?,\334p?\244\310\366>\230\327=?\316w\022?4\301V?\306\332s?\220\265\363=>\014<?\300\263N=\304\010d?<r\320>\240\350\273=\030\224\027>\236#!?P\203y?\2640\023?\232\006\005?\3429C?\304\314Q?\254\266\233>B\356T?\274\241\217>H\303\276>\222h\\?\250\003\357>\260Q\364=\000\220\343=\374(7?(\263\315>\224L\254>\026\352/?d\237>?\312~i?\034\364g?\260\330\375>@\363\344<\340\376P?$n\224>t\250\370>\022{\032?\242l\"?\272\327[?x\357\243>\372\276Z?\234\027\303>>\334_?P\305\264=\240\rw=hS\233>\004\264r?n\020u?\030\006X>\000\014A?6\221+?\020\027\007>\210j_?@j\341<\200_\177>\266\3518?PM\232>\030x\256>\350\321\r?Z\270j?(?9?\342\241x?\006\213\037?\364\021??`\241#>\326?w?\346\005r?\354\250h?\234] ?\204\225\374>@\321x?@\200C>\020\344E>\322M\023?\244<M?\204eC?\300\352:=8\003U>\030\004j?\3449\023?\234\346\221>8\010\263>\264\212\247>\250\374K?\240!\300>\316F\030?\344\020\031?((\321>@\270\356=\364\n\347>\260T\252=\274\351C?\000\205\007<\254\255p?\236\277D?\0348s?\374cq?\254/\364>\206\212]?\302x\003?*\223)?d<\312>\260aS>\354\252\001?p\007z?ZpM?\320\215\221>\022\005 ?\230\331G?\306&7?\250!\034?Xk\213>@rr=@\027J=4\256Y?h\207R?\362z\t?`\205\">\260\333B>\004\3571?\376\214u?\200GF=&\331\025?\030K5>\350\345\356>x&\272>\326\375B?\200\303\010?\376h\035?\230-\373>\312\341x?\304@\t?@\'\371=\3101h>\260\263@>\020\272\256>2`l?jU5?\000\306I<@\256z=\332\232U?\220\345w>T\351P?\326^\001?p\377Q>\240\301J> \036\271>t\240\362>\312a\033?\322M\027?<g\224>H\357\035?P\270z>\\\354\217>\352qE?2\213E?\260\250o?\362\211\027?\006\253(?\310j$>n\243\017?\312a<?0j\325=\260h\306>d^;?X\213\214>\206}(?\212(7?\010\031I?j?z?\250x\036>Xu0?4H\001? \371\324>\212\016D?\344 \005?D\233&?$N\272>\336\2371?0\263\353>\200n\371<\222\214*?\334\"\004?\370\2704>0]\237=\336\'|?\272BP?\000\354\017=\020\372\324>0\346\202=\362\353V?\304j\201>d\"\266>t\241Z?`\315f?\326!w?Z\3012?\210V\215>\240\013\355=>\371Q?\024h\367>hvK>\230\315\211>\264t\004?\036\013\031?\370X\204>\340is>\3347\226>b\274\'?\260\326x>\260\225\206>\026`9?\260\013\335=l\363\357>\212\334(?\2463\022?\354E4?\234\334\224>b\345/?\210\232\177?\200\320O>\354W\352>F\216\177?\000E\322>.\3410?\270E\321>\320_\212=\310\034\024?\306f\023?\360>\246=\220\362a?\272X\037?p\236\363>\300\246\t?zw_?\320FY>\020W\'?\200C\301>\200\'\323=\200\307\254=\200&5>\360\217\213=\260\345&>Rv/?(H\235>\000\350n=\332\220i?\370\345\215>\366H\'?jbx?\224pX?\210\345o>\260:\346>@\302\351>\212B<?Lr\366>\306\247\002?P\220\037>\330\246P>x\231\302>\370\177\346>\360\321L>\234\'\224>\272\003O?\270[i?d\024\251>P\002%?HG\224>\200\263\027< s\371>|\275\004?\250x\304>\200\235\245=\014\330_?\000\315\237=b\202^?P\031\n?\330U\213>:J\005?\204\032\330>\274+\333>\236\212i? Ha?\340\377\246=\006\245\024?\022J\024?\340\r0=T,\330>hs\237>\036\314\017?\354\236\217>0(|?\230\243/>\206\212z?\226&j?\000\207^>P\370\316>D\226\346>4\001\352>\020p\234>\370\2133>V\210\006?h\253G><\025p?\300\273\347<\320y\333>\000\372N?t\302f?\364\n!?\300HZ>\376\313c?\300\252\301<b\256/?0\304\260=\300\r\210=\340\331\263>(3V>\310f\026?\366\256\004?\326\2156?\010JO?\274DA?\220bd>\300\021&>P\211%>^<\r?\320\231\216=P&p?\270\250\360>\324|\321>\2106\'?\364m\025?\330{a?\032]N?\350\334\030?*\316 ?>\250(?p\336\022?\370gf>\020y\316=\000\2701>\000]2>$s\375>\034|\005?\320\266\303=H,\010>\272\021|?\354\242\240>\254\240\242>`vf>\330\266O?\354\014#?4\201\303>\340\346d=\346\377\032?:u\027?\030t\214>v$\017?\272\274,?@`\330>\240\364\224=ZF\026? \363\256>\270\3340>\330\371\\>D\253b?\370t\274>\324\275t?`\035\354=F\274)?\340\204\366=\372L\035?\274\263\225>`\3573=^7\n?\000z%?\300F\270=\362\224\004?\300\013\340>\376m??\210Mi>\252\006b?T\343{?\000#\250;\324\342\312>n\rp?l\2715?\020\327\254=rv\013?\260\326\233=\002\343\010?(\260\317>D\334\345>\000]\'?\234\"\313>\276\360\013?\332\305\035?\370\377\031>z\3772?&\364N?\254Ef?\230*\270>\240^F?\370\004[?\224Q\016?Hy\203>\002\246H?p+~>\206\255<?\272\235L?\300!\213>\264\030\230>\200\245l<\024I+?\"78?\214\0219?4\344\372>p\257\033?\204\331+?\246\276+?fDv?\260\354\325>D3\332>\342\216_?\010\t\260>(\3006?PJZ>\030\313\261>\344\017\314>\346\240\010?\370\354\233>j\036k?\000\277\354>\230\3678>\214\232\335>\024\300\001?\246\037\017?\224\301\354>\350\374h?06g?h\2702?\304\334\227>\216IZ?p\224\250>\326\231H?x\034r>\274\002$?\020e\014?x\377\'>,*\301>fo\177?\000\211\007?\344\tz?\214\177$?4A\027?\000n\222<0:\177?r\221_?\252\252>?\360=\351>\346)c?\260e|?P#\316>\250\000P>\300&\024>8C\311>v\245m?\310&\326>\212~^?\000f\241>LL\027?6\315z?\334v\305>l\365\017?8\347y?~dC?\010\342-?8c(?T\003&?`\226i>F\333Y?\376\216Z?\260I\363=r\244d?\232 U?\300\327\321=\274{t?N\315C?\250I\266>\360\377\033?\250r9?\356\014A?\220\345\321>0b\030?\\\3018?\344\345y?\350\355\327>@\024\205>H\0317>\220\022\207>\200H\321< \301\036?\314^.?T\241~?j\341G?\276Y%?0\361%>\240\2071=V\255\r?0qo?\332|3?\306\316&?P\000\361=\212\340}?X\246h?Z\206\013?\036\356U?\210a\005?\202\221#?\330?M>>Uo?\220W!?\032\323]?\256\331]?\322.,?TFO?\340\026\313>\330\021\342>\332M7?\200v3=H\230G>\010\211L>\020\356\032?\330\341o?@(\372>\354\030\023?\216\020K?\032W/?\342\335~?\270\372\335>\304\371@?\326\245\035?\350\240\346>D\331\260>\320\013\340=\240\306\256=2\205h?\034DZ?X\223\010?\330\252\266>\220\253C?\220]w?<?\271>D\272t?\034\r\352>\374\035\016?\220AT?j\215.?@\006x?\370\343(?\320\261\352>\000\370\002>\200 b=\376\361]?@Eu?\262\261q?\330\267 >\356F\024?\340{\365=\254\371\t?\202\240`?p\313\303=\260%m>@\352\261>:\004s?v\352s?\010\264r?\240\202+=\216\265R?\032!V?\274<\313>Hsd>\254g\235>4\023\377>\340\334P?\202\343W?\216\350\030?D\347\324>\"p.?@\010\344>X#\033?\002\033\027?\020\273e>\034x\361>\214\315\026?\014)y?\240\215\261>\260\350c? \374\260=0/S> \306g?\250\241\252>\322 n?\2642\205>\364\321\226>h\326\342>\350\2258?\370F\330>p\241\221=\000\002\345;\220(!>\370\204:?\352Kt?\204\373i?p\376\275=&JC?(\257\224>h\013/?\000W\t?\250d\032?\340\313\t?NJ~?\304\274+?\220\334L?\334)\265>\360k\014?\374\031i?\260\215\203=@\260p>vpi?\216^4?\260We>\300k\327=\200\366A>\234\234\216>z\375\006?\344\301j?\322VJ?p\007\023?@\245\374<\240O|?\230\352\t?\350bQ?@\345\003?P\2007?\216I0?f\276X?\244\356\201>\364(9?v~\034?\236\215\023?4\225\251>h\345\201>\240\373\222=x4\035>\202L&?\004q\353>\270f>>nd\037?L%0?\230\232\030?P\241\r>\234\226\204>\032Gy?\032\tB?\200\370J=\360~#>\026\361]?\020c\020?\250?;>\220\t\013?P\210\030?\200\332\374>\314=\032?x\0136?\314L\361> \323r?&8V?\266;Y?\210\266\350>\310\222\300>\000\037 >(V\365>\340\206\323>\370$\005>Jqq?\200\022\222=\244\023\263>\220\305}>\004\316\247>\006\250{?\210l\210>4\345\205>8]\r>\316\004\001?@\301\303>\310\362[>8y&>D\010\204>\3007\225=\314K\220>X\034\216>\3300\354>\264G1?\320Fx>XT >vC(?\030\230#>\006]\013?\210\361\025>\270\340\331>\320\036\216=\316+Y?p\300Y?\220JF>\214\005\220>x\002C?\324\314\366>\0241}?\260\273\354=\256JK?\230[\307>>/9? UU?8\315\244> \376\225>\270\2328?\372He?\000\3301=p@\264=\020\365\'>\200\027#?\340RR?\2404\007=\006\265\031?\340\\\241=P\177\313>\026!0? +a><\035\265>\000\364\001>\370\242V?\\\232R?\230D\037>\032\354\020?\356\346\000?\312\246S?\350\022\'?\200\231\020<\330Q\370>jT\005?\352\273j?H\266\336>H\0326>d\\\232>\200J\344>\000\307\351<\376;@?(\304`>\214S\234>@\333\265=\020\303\265>\316\3116? #\006?Z\001)?\332\232\006?\274\342,?L\212\267>h\377>>\034C+? \213\271>\224-^?<H\307>\316\362X?\204\004\014?\266/\006?\020\177\352>\344\2448?\220C\252=\360\300\305=\244\333A?\344Ey?\370EE>\026\375\004?4\003\346>\310\202_>\200}\241=\244\254\323>\374\217\037?\246\031M?\246\321??\034\0109?\272\t\000?\350h\375>26\004?\0103.?f\360\005?*\006\022?\206\023\034?\200\220\366=D\013r?\224t\376>@\322\263<\320\333\334=0\347\272>\320.\262=n\r3?\314\"\330>\334Fk?R\275k?x/1>\000\t.=\000\260<>\360\022n?||\311>\000\177J>8\267\262>8\226\330>\344\356L?P\215H?\324\251y?`\004==@Qu=\030\331 ?\300\217\021=\370\026\255>,\225P?p\025h>l\345v?\000\202^;Pt\245=R\206C?8\177[?\202\372\036?\006\245\177?\204I\273>\246\001P?t\330\206>\354qq?\000\220\200=\342\223y?\364D\226>(`\014>\010U\370>0\351W?`#0=\274\310s?r\301[?\210\202\306>:\032-?\360De?`\025\031?\360\254r?\350\263;?4y\034?\322\302v?\260\2763?\250\021\001?\334\244\310>\000\253\272;\244G\343>:s+?\210\025&>\370\343#?$\325\341> \217\265>F\004c?\262\2113?P\256\332>X+q?\022\364\000?Pr\331>85$?@n\216<\214\177{?\250\230B?\300\364\273<pt??\260\026+>\262\264x?<\260.?\352A\004?@\370\275<r\006p?\034x\307>\226F\024?j\247m?@\270\000>\374\006\336>ngN?Tf\201>d\306B?$\256\375>\020\243\'?\3344\334>`CE>\200\241\t<x5\265>0\313\306>Z\023}?\342\365\026?\370j\001?\330\226\021>\006\213[?0\363\217=\360\344g>\310\rh>\200\305-<t\202\302>Viq?@\010!=\300\273r=p\232q?\242\0102?\004uO?|\001\337>\330on>\010sG?0\202\374>jwv?(\253n?\230\306L>\020f#?t\023\270>j~v?\200Y\276<X\\\003>\200\016\324>>nB?\3266r?\214\352q?\372\000`?\030\003\253>`\305\227= \275j?8\340k>f\350;?H\3352>\344N\014?\000\234\206>\33278?\360\231F?XW\037>\250E\313>h\364\223>\354\022\004?\364\016\005?n\232??\200\362\355=nT\036?\264\017\240>@\211k?\314\r\305>\332GP?\316/\032?\200\371\313>\324W\207>,\303#?d\204E?\022\240\005?0\363 >\330\255\235>\000\350\327;`\232\\=\230\n^>(Y>>\260\nQ>.\242\016?TZ\246>H\022\276>`\303\306=\020\"s?\220%&>p\331\206=\200\356\250<\026=\007?\272\212\025?8\351\014?$\207r?\200\220\322>x+\342>\360h\332>N\344\006?\344\364\025?L\256%?0{\364=\014qU?\304\347s?,\310\301>6\324P?\210\214\266>p^\017>\024\203\302>\020\" ?\304\260\313><|\241>\350\210h>\030\353H?\0243z?\200&\t<\036\315\034?\320R\370>\274\257\250>(\310\366>\310A(?\256\270|?43Z? \233[=\036_^?TA\177?\370\302\356>@,\204=\360\340B?,\324\225>l\303C?\360\225\022>0P\237=\250\226\251>l\027\311>@\334\323<T\315\220>\300\317O>d\360,?\302U5?\262*\002?\300\204\200=`w4>JTN?P/\264>t\242\003?n\003~?@,\320>\030E@?x\245\357>\324\240\254>\3744\346>\256\242p?X\213\177>\3348\331> \375\207=\200q\233=\340p\225=\334\237Z?\230\"?>T\207\336>\030\311\211>\304\235`?J:%?\314\247\251>\320\256\004>:\325\035?\224@[?\320\026\241=\020ZF>p\346#>\300\317\357=\230\205h?\2204=>\020\301\354=\306mg?\000\234\273>\242\354!?l\270|?H\314\r?\342\354:?\216\322A?\026\rR?P\271\323>\334\306\350>\210\204\250>z\376=?x\306\242>fr2?\234\360\365>\360\035\252>\242w.?Lcr?h}F>\202I\025?\320\364\253=8\264K?\300\362\025>T\033\371>d\234\314>|:C?@\355\023=\3062\035?V\037q? \005O=\024C\241>\034S\365>\364&U?\350\0074?\310l]>\354\340\356>\256\325\005?\242\370P?\200wj>,\237X?\034\362\222>j\246+?Hc%>\340\214\271=\002]=?p5\213>0\224 ?\330\334_?\\K\362>\030\210(>2\202c?\274\317\362>\030\210\241>\340\021Q=L@\017?\260b\351>X\347\177>\036O\034?p%[>\002\217\014?~\006T?\020\226\274=DM\362>\334gU?|[\021?\360\306\237=\032\234|?:w[?\034?\345>\362\260#?\270ds?`\000\315=\310\346N>`D_?\250\327w>`\271\">\376E\"?H\336\211>f\265j?\3548\202>px\237>\030*x?\220\206\030>@\230\224=\350\342\026>XU9?\316Fp?P\215\017?n\025\r?\260:X?\356\224\027?\340\221c=@j-=\220b:>\006\361#?\204\005\374>\260\213\366>\200\222\343<\244\202\016?\354.\006?\260E\343=\240\214\203=`A\305=\030\034@?\210\202%>\022Z*?\370\\D> zZ?\242\361\036?\000\306\241>H\360\251>\236M\016? \204|=\320\223E?\264F\262>\316\367\013?<\301\364>\210m\035>\220\341\362>\340Jy?\314B\370>\270\344x>\026px?\222\204Q?\334\275R?\030\375\223>\364\277$?\270_\326>\000\254\330:\332\343\027? \322\r=\370tX?&@\021?PV\241>(\202\342>\240\353J>\000\001o=\260Y\231>\272\003\003?\nB\032?\274c\276>\376{\034?\010\336&>\034{\312>\034VT?P9W?\030\373H?J`+?:\341p?\256\352\000?L\355\273>\004\032\024?\260\367\227>\026\362Y?l>r?\354Y\247>\220o\211>\262\234#?\350f\033?\n\204\007?D\335\214>\314\274.?\200r&<\000\324T;H\244\027?\204UE?`t\304>\266nB?(X\030?L \200>\204\"\216>r\365\\?@\263\240<\300+\304=8\215\356>\270<(>\220\205\205>\326\252\r?\2648s?\034\354\236>\250\3200>4\006m?\216\276\037?\372\221\002?>c\n?\032\372N?(\331\311>\256:x?0*\276=\024\036B?\210,9>XOT?\210\027\202>`\333\025>$\372y?\200jN>\342Wv?\260O\263>\256\372\016?\000\"%?~kV?H\033\271>.h>? QK?HKP?\200\032U<\270\177\270>\366}??`\320\361>\240\235\203>\300g\220<\374\351U?\260\252p? \371u>0\257~>\234\224\245>\020\222\327>\370z\336>\000\027M?4\223%?8\336\002?t\312\003?\004\263\247>\212wj?\254\352\335>\000\217\026<\350\316\303>D\253\002?\336\257H?\026F#?\270L\357>\000\026\201>\226\033r?\376\303O?x\322\274>\220*&>\220\332\336>\334m\314> \340\002=$\355\267>\360\344\345>\300\305\252=z\332}?\310uY?\232\362X?\200-\006>\320$\244=\"\322K?\002\347Y?>gC?$\035V?\232c\'?\000:\025?\264\313\032?\3204)?\000\250\241:\370~M?\030\330\226>\2201\262>d\234j?\300\231\367=\272\363W?\254\316\025?\300-n=\306j\\?\260\215\377=\254\024\261>\004\nJ?\252\361D?p\316I?\240\276\257>\270\321\016?B\203E?\354\326\267>0wW>`\240q?\024\034\217>\224/(?,^T?\354O\024?\212J[?\330 )?`H\311=@\t3=\314\225~?p\372W>\266\266\017?`\301\257>r\230y?\004hl?\340\277\013?\3101\026?h\004\371>l\250\364>\024\354G?\310D\033>b\rN?\300\267,=\320Dk>\020\304\017>X\303\007>\010\342\020>\250}\367>\020,\210>4`$?\210R\t>\004%\014?F\356y?Z\273v?\314-G?*E\017?\240\340!?.\247$?\2729N?\316_#?\304\030\003?\276)P?\240\335\241=\020\226C>\250:\211>\336#H?\244,\001?8\215)>\340AW?\330\337\321>\310wW>\330i->P7\313=\300y\247=\214R\251>\200z_>\316SA?J.{?\024gZ?\244\256\324>\370G\252>\360\244|> \360\007?RAg?\260\2753?\332\213\000?\214\n\\?\330\263.?\016\324<?@\013\337>\364\227,?\300\214\304=\204O\227>@)\256=\266VH?\334\001S?,`A?8 G?0\271\004>\020#H>\246\276\031?\030\002~?4\276\240><;\317>\020P\277=x#S?\344\210\330>\014\250\312>\334t\303>\300.\035>\350\252\320>J\021;?P\0352>`\276\327=<S\236>\330\336\031>\004\311\023?\214\006\276>\204P\321>\300\274\255>N\345P?\360\234\240=\000s\025=\256+#?\260\3417?\230\035\345>\240\305Z=\310\007\225>\370h\267>nx\n?4Wt?\344[\330>\260\336\036?\314d9?\214\025P?`\214S>\020~z>0\276\307=L&\371>\256\326\027?\314\2247?\2341>?P\016B?xg\345>X\351L>(8z?\366\313\020?\3201\312>\000p\016>\"Q\014?\260\340\367>F\311\000?@sU?\356/\035?\212\360B?\000\017\310=\324\373n?\342\341\027?\330vS?0i\204>\266\352H?\350fT?@\366\n=.\371e?\226Yp?l\371X?&\310\007?H\234\017>@N\235=(\227\373>`S#=\322I`?\354z\270>\234\307\354>\024\3250?Z\n\017?\306o\000?\320\231 ?(b\007>pM\360>\000\346\205>\024\215]?\200{%>\350\"\277>dm\354>\022{\037?\000\336\344>\360\334|>\000m\326;\300OL>Xt!>H\376\317>\200(\357>*\214\006?0\365\257=\370\030\204>\014g\331>\362\021\030?\200\370\226>\220\374\035?\256\014N?P\001\022>\254\337z?\320\0058?\306\333:?8\335\n>\360\300\355>l\220\252>\344\227|?VLI?(\363}>\004n\205>\372@h?\220D`?V\3761?\300\226\205=\376\030o?\206$\021?\020!\024?\270\003{>p>[?\016\357B?\260\263\376=@ \205=\340\375P=\234`\023?\350)K>\234\301\256>v\0063?(\361\217>&>\010?\352\3149?\020\341\327>xIS?\306\216S?n\365D?h+\027?\022q\003?\346uL?\254\224\310>\200\t\371>N\231=?N.F?@.\221=\200\014\246=6P ?\360\352\366>XVO>,\315\"?\300\271E=FIM?l\234h?xc\231>\250\210C>4T\r?\200\302\347<\300\266\272<\212j2?\022\210\027?\310tN>8\225\032>h\252\331>\036\210 ?\210\344\310>\340(\254>\250\371\232>4\243\304>\004\372\367>d\030X?\004\236^?b\261M?LVw?p\364d>\222\217U?fJU?\272\375k?\310\270\206>n%s?<\026\023?z\nf?\310\003\"?\230\276\363>\300_x>T9\316>4\372\351>\200k\001=2\021n?`\254\307=\200\0340<\270\rj?h\030N>Z\266W?\224\367\261>\330l\r?H\334\002?\230A\253>`\200\312=H\367\036? \333\205>`F\325>\226F\013?\270\265~>x\224\215>\352\366c?\302\225:?\000}\345<\0009B=\036i`?\030x\005>P&\332>\210\023\247>\330\247\201>\254\360\275><\311\036?\340,\345=\300\025\034>\334l\307>\320%E?<pc?\340\225\232=\000\010\\>\264\226\016?\370q\245>\024\264\361>\020\013\343>\274\363%?\240\237~?$\200\252>@\330\270=\024\326\232>\314\322\307> \342n>@\247t=`?y= \021\030=~\037j?\3101\345>x\201\376>\000\334\010>\264\263:?^ef?>z3?\312CA?^\024J?\034\223\255>\336t\027?D\356`?\n\247^?to\006?2E\025?^\030|?\\\254\242>8\324\r>l-\367>p\203\264=h\207D?\000W ?D$\340> %N>\2466 ?l\301)?\340\006\254=@\356t?\304\363\014?\344\376\362>~\327^?\344\310\265>`l\003>\300\010\357<*\232L?\200\253j=`R\234>d\337\376>\272MB?\350N,?\004\261B?0\300P?\360\025\330=t`<?\370\0251?\254\002\333>xd\222>\016\r\013?\260d\331=\362 $?\300\027\375<.\264&?Z\321<?\200\"\202>\200>\275<\354+\255>\216\033u?\032\245\001?,\323\327>ZGs?\274*H?8\354C>\224\214x?@]R>\310h\002?~V\020?`k\305=\010ma?|@\253>:p%?<\240\324>,\322a?d\224V?\244\325\310>\006KN?\024\323\334>\260\343\235=h\217u>\300=k?\250\341J?\016+6?\316\027\002?\030\204r?h\214\"?\220\360\303>\004\310\221>\000\322D?\306\330\020?\230\230\034>\300d&>\220\231~>\356(a?\300\372j?\000\003\347=|\360X?\370\246L?|\375\032?\264P\343>B\247\021?\022GZ?\240\367\217=\220*\263>\236\323d?\314Kn?H@\301>\230\362(>,\321Q?\214\356\332>\020\374X?\330-_>\322\254&?\220\335#?\360\217\256>\230\321\027?\\\353\001?dH\375>\026|\'?x\001\224>\310\371%>\224\356\315>\220\237 ?\304h\244>n6=?J\235Y?\270\246m>\\\311\027?\2761J?`\024\027>@\220*?\254\304\340>\000\347_<\240`|=0a\224>\334(\034?4\350\003?\210\2361?>\3335?<\210\230>\266DX?\310\256\000?\322\2076?\026J\022?02\215>\"\323C?\340\321\312>\314\030q?\314\177\t?\270F8?l\376\025?\200\244\276< \310\372=\332\346P?`s\277=\340\026p>\300\376 ?\030\200>>\340\257X>\354\324B?\200\037\207<\0246\032?\214\257_?\350\377u?Fz`?\n\253\013?\370<+?$?\200>\300\344\314>`\362#>\2424C?\\\037\247>bXW?\270\206Q?\324\251\350>\370!_>\260\277H>\322&\023?\034\303\033?|\323%?r\346V?\3444\313>\332\251<?\364\307\361>\200\360N?\202Oj?\230\004,>\350{\266>`\032\302>\210\213]?\004\023\372>\340\360\254>\250(P>\230r\261>\376\013a?\350:g>h\205<>\370\342.?\240\034O=\014Lt?.\253,?:8&?P\"\365=\274\033\227>`\215\017=t\241\341>\210\253\005>\334\377\221>\300\001\373<\016\2475?t\236\264>|\316\224>j\007w?\240\224\376=DG\335>\376 +?\022)\177?\376\2750?\352\251#?\000\016\314=\234\216Z?\360$\372=\306\201_?X\211\034?\216\212\003?\004M\273>\006\035;?\n\315p?\270\207\303>\004\026-?,R\240>F\272\035?0\026\031>\360\223(>\334\314\377>\376=i?\030\352\231>\3605\364>\000\360\014=\200\037\013=\036\367\n?R\247S?0\024\202=t\263\261>\000\232\260=\234V6?\264\354\271>\010\250\347>pr\252=\242B*?\300\021\270>`a&?\360\324\024>P\343\234=\332\031\021?lh\213>\304\006s?$A\346>@\243Z>&m\t?\276\357 ?\240\320r=\216\324!?\006\375\035?\240\025\242=xdj>6\n0?\270\036\335>\210*\273>N\241\005?H\027+?0\257}?\214\270/?$\310\326>\232\221N?V\030V?\250\212\276>\364\255\025?\212\3765?\236K\031?\030\"n>\200\341C=T3;?\016\317b?\314J\206>\032\367g?@\232]>\306\357y?\026hw?\250\332\265>\014L\344>\340\323\016?\200L\245>\322\316b?n+.?\310R\215>\326\337\010?\320\200\252>&\215{?\306\310H?\330\312j>\320\310\177>\226\364^?\000\224F>\264\361\210>^\3659?`\212*?\270\n\307>\240$J?\300\314!?\270\352[?\236\337\023?,\354)?\232\0363?P\023\031?\202\216L?\0265V?\216\272Z?r\362;?X\017\306>\020h+>\264\234W?X\345\">D1<?\270\326,?8BS?\310\337G?\264\246\305>fs$? \357\325>\256\277|?\260\301\207>\240U\225=\024\221\327>\220/#>*\010j?\224\274,?H\244.?\272\272D?\000\335\262>\250)b>\222h\017?\300S\033=\340\333\034?\222\027K?H0J?X=@>\210o\221>\350\361\317>\3003\275=\000\014\315;\304\274$?D\232\300>@\240\230= \004\256= \030\217>*\020^?\014\375\313>V\376Y?\020\263\372>\000\204W<\3305\177?@1\265<\350\017g>D\0378?\370WL?f\0050?(D\032>\0200\370>\264\3627?\374\257\266>\230\3334?\330\276\033>\220\263\227= \313\256>\276\343%?\360tv?d\032\206>\302\203v?\302\242z?\220\225\205=\016\006\002?\276\000;?\300z\002?\210#\351>\252T\'?\226\356U?\230_\026?\320\314>>\250\376N>\306\257#?\000\331\251;\004\214c?n\345$?\000\"\302=\360q!?\210\361\254>\004t0?\014\353\325>@\306!=\2607\255=\000\225(?\032ni?T\265\303>`\203c>\240\205==0\333\257>\340\264i=\312\213}?LP\022?\3001\007?\264\335\303>\260]g>\014\230\201>F\265\017?\210\364\270>T\374\203>\330\030\306>D\365\215>(\000\370>^p!?8\277=>\334T\305>\220M$?\240zz?\350\003\021>\014\235\275>P\311\003?NvV?\304\025\245>\006\214Q?\234\314\277>\02014?\340\300\242>P@,?\320\356W?,\'\212>8AQ?(?\310>r,\005?T\3355?\002\2727?\\\361\331>\350\210\260>4\354\007?\330\366\t>.\210P?J\321\177?\300\365[?(>6>\320\023\020?\200\226\372>\354!,?\320A6>D\241\340>\002T[?\240\371:=\300L\370>\n2b?\234H\206>\344\303\221>\222ms?h\326l>R\257U?\250\350 ?\000\206h>\340\217o=\034\251\262>\200\361\302=x\2037?\332\037\030?\330\2349>\314/\273>\340\340\336>\020$E?\262\373w?\362/X?^\231??\266\353T?\004d\375>\340yS?\034\261^?\374|\010?\264\211H?l],?\340\354\027>0+\007?\336V`?\322\352S?\244H\233>\200gN?\240\t\337=\340\265+>P\366\363>\262\217,?\030\310\344>\016\327Y?\030\243e><\"\020?l\013\313>\220\2709>\006\214v?\300\333\211=\032{d?^-$?@\344\357=\202\345\000?x\240~?8\215\216>\344^B?`\353\257=\236\340\033?\200[6=P&\351>\310\370S?\030M\361>v\020\032?0\244\024?\306\255\034?|\262\341>\350\020\202>\332\213-?\014\364\321>\302\336u?\230\226,?8^>?p\017\006?\220.e>\372\270|?J\036Z?\022^Y?0,L?\210F\227>>\263\"?8\340\375>\250`\004>\322\002b? m^>@N\303><?5?2\2131?\024\332\367>\026h\032?`\276{=V\262C?\260\335\304=\364\333\336>0\216\365>\246\033u?\2660&?\260\037!?Tb\315>R\223,?\204^.?V\3718?\344\214E?\354\304\006?\314\343\206>:\016h?\000\325\224=\3445\303>Z\037p?tYx?|\013\322>|V\305>\246\241T?,\2437?@\251\017?\276\375h?\024LQ?\350\341\373>\230]\331>\2602_?\000\023\"?p\233O?\334\360\346>\212\315`?4$\333>p\217Q>\270\026s>h6\377>\314\224\206>(4\365>\022\310p?<\321\334>\010\207\030?xI\016>\270g&>\200\021\016<\222\254H?TI\210>N\362L?2\3140?8\254K?\026\371f?\220>\245=\274\030\315>\024\2456?\0344\321>@\367\317<P\332N>\000\320\3219\000ux>\252\337\026?\300\264\351<DV0?\004,8?\000c\354=\250Ks>(\235d?\330,x?\200\023\366>|-\232>\340G\206>l\302\227>\300\246\007?*+Y?T\207\010?\240\371\023>\354\014+?\3308i>\216\240_?\340%\335=\354D\260>\000\364\312<\240\3035=0\016\355=\010\247\007?2O\016?\300\347d?\300\367t=\000\220->p\225t>\026\226h?\034i\321>\000b\373=H\314\345>\316\216g?B?\035?\320e\021?\3104\242>@\037\337>2\007 ?8\331\'?\350\037)>\224\251\262>\340q\321>|\2376?`_Z?8XK?d\340.?\340>G?X\366\013>\206mS?\014\241\032?8\006&?\000\355y?Jw$?\322\341b?\34642?p\325R?h\005h?n\006n?\000T\261>\004\n\253>le\264>\364?\210>\326\262\r?\\ \022?\200\337L<6\303<?\232\275\007?n\3611?\346\376F?\220\271\357>`\013\252>\250A#?J\3203?\200w\217<\372\253\025?^\271p?\306\220T?\200\316\320>\302\305h?\222\231G?\200W\343<D\033\325>d\0042?\316\322\007?\002!2?\232f|?\332\207[?\242\007~?\024\261x?\224\334\373>p\\\031><\331\'?`\003\035?\336\376\017?<e\006?d\356\253>\334\323$?@\335\222>\210/S?\334X\313>H\204\032>\\\322]?\014\217U?\350\2036>\024#o?\370\257\254>\034\006f?X\216U>\260\237\226><\271\004?\020\177U?\324\222\337>|[&?\034\316\264>X\372[>\n\272+?\366A:?\030p)>\360<\362=\010\262O>f\326M?\200\201\336>\324\221s?<\255\033?rSo?\374\0024?\340\211|>V\373x?\362I\005?\220\004\360>(\313\340>\0049\022?\300!\227<\320\341\037? 5\000?HjK?\270\333$>@\332\201=Lp\205>\004\266\202>D\2437?\330\347\003?\266\244,?\200\237&>p\337\253=@#\230<\000\311\343=\332\027r?\004d\365>\314\\\265>\300\377 >\004^k?\020\243\204=\220\257Y?\000\342\277=\304u\270>,X\247>\344\360\264>\270\317\260>P\207\000>\300C\226=\274C^?\030\217\252>2\232s?\316\257=?Z\211\035?\262\361\"?\300\376\212<\036*r?n\326\016?\200%P<\266\315{?\2001\240=$\360\375>\214\365\234>\272v\004?\276\313n?l\226E?L\251L?\230\023\006?\260\r\343>\"\320\026?\330Zt?X.p>0\357a?\202\202X?\350k\037?\032&\020?\230\031f>H\035\374>\350\024l>X\010\230>\322\357I?\300\353\225=\010\312[?\000\000\372>\214\274\005?B\355q?\364\237\270>\336\340\035?x]\366>\240\213&?\204\303\335>\210;a?@\330>?8\213\245>>\333d?\000P\317<p%\262=P\024\244>\350\210*>\014\230k?`\376\337>\2307/>\224\332m?\204+\264>\016\313\014?@\253\363=\374&x?\3142\367>X\003\227>P\017[?J\263\021? \330\363>\260\212}?z\322x?\0048\235>8\274\227>\250R&>\260\274\336>\300\301`?6\246,?\260\343\244=\250(\374>@\3064?|\265\005?\200\t\017=D\223\351>,\322\316>\220\007\302>(\345\202>(\214*?dN\212>\000\001J?p~m>T_\364>\n)8?\354\267v?\352\'\\?\224tt?\014\331}?\300w\317=\220\206\310=\274\216\342>r\261\023?8\204H>nF\t?8\345`?\330~\243>r\025(?xm\232>\240$\304>\372\207-?\226i\021?\310\311\264> \375c? \365o=\270\221-?\020k\351=\214\250^?\000\307^<\240\224;>\204_^?8\326*?\224n\020?\000\310\305;|\203y?\374\364j?\250\344y?\336r??D\230b?\320\222K?t\302\203>\300\355e?\200\320)?x\242\373>\364\331\326>\274@Y?phH>`Y\000=\234\206\372>\300k\334=\260\367$>\300\033\331<`f\n=\362\246[? \235\302>\326\236\'?\314\2103?\000*\021<\224\r\274>\334\273J?pC4>\320\023e>X\273\252>\264\025I?\234\231\027?\320o\335>l\036\n?,\330\035?\324$<?\200\214`=\310\223\213>\242\332D?\224li?\014\372\213>\010\"X> \245\203>R4$?(d=?N\277*?PeQ>\320\314\262=L/\365>\210\277!?D\014\275>@\246U>\014\000\362>\320x\264=\330\260\203>\304x\341>\300\302\033>z|N?\220\371B?\326\263B?$\037\270>\010!|>\370{\016?*+d?DO\355>\300\324y>RTz?\304\033\320>\232\252L?t\256\030?HX0>\300\305\253=P0\331>\364c\025?\020T\327>,\3519?`\346C>\250\204\206>\366HP?n|\001?,5U?t\243(?\316\t:?\320\027\027?`?d?\202R\020?@(\t> \333T=\034\204\'?(\2159>`K\010>\374\3066?`\212\330=Lk\363>,@\345>,m\254>\350\310\373>\000\3235?\266\347I?@!\007>t\316z?\200O\330<@\372\210=\000\324=></U?H\355n>Br\025?\240\226\374>(G,>Di\007?.\202(?\220\2635?\340\254\313>\3122\177?\300\304\002?\3003a?\372\t.?\014Y\337>\020\232\026>\240\352X?*\263M?(P\260>\200\tk<\302Y!?\342\315y?\276=\004?\240\036\223>\370\311\377>\344\300\005?Pr\261>`\274Y>\364\200W?\000B\014?@F4>\224U\320>:JC?@\302\034?\202\314^?\\\203\254>\330o\373>n\034K?\314+x?x\341\031?p#\276=ps\031>\270\017&>\3508R?8\226\032>\224.T?J5O?xX[?L-\317>\336\337\007?\364\262\276>\200\256A<\000\345\002>\320O.?\354N\341>\250#)?\340\036\226=p\335\352>\210\nF?\000W\240<X\266\236>\010\177\255>\200 \032=\360\310K?\316W<?`\016\031=`{\373=\226\267\020?0m\221=x)\030>\374\320\026?\nJe?\200\334\023>~]\'?\010\336\335>`Ci=p?6>`]\033=@\004q= ]D?\004A+? \224\215>\2204\273=\340\216\250>4\307\035?\030\004G?\000\334\211;\316\331 ?`\310\205=\220\312:?p\3265?h\001@>\000\034\223<`\306\231=\250\243p>\300\003J?\030\317\276>2\372Z?\240E~=\360\010\r?l\307\031?\242o\002?\030\311\257>\300E<>\346\245\t?\2243X?hy\024>T?\332>\312\2043?\256\354T?\340\017Y=\264\337\301>\350O\002>\336\0229?\000\201\224>\354[\335>\370\003\'?\274\332\233>8\324\002?$d\212>p\024\221>D\263\335>\3220\026?v-v?\240,`> \250\007>x\244\245>\202\250&?\026\017\000?,UW? \356*?@U\037=F\021-?T\343\374>F\276/?h\344\301>\244\031\336>\372\233n?V\254\"?\230\361\345>@\272\213< \232\307=0\276\302>\220lL>\300\222\027>\370\004\236>,ux?4\324\200>\2522!?\260\014\202=\220\277\357>@{+>\356\265\016?\030\334\220>\000\022\230;\010\342J>P\346\010?l\250\362>\340\001\035?xD\000>\304\251\316>\310a$>\016\215Q?do\n?\000\205\317=\036\036I?\312\2663?\360fA>8\342\t?\0165/?\260\241\315>\000\216\036;@\224J>\240\222\030>\300\303\022?\220\223w?pH\356>\000J\251>\300\333^>l\337\001?pi\266=\354\260\347>\014YF?\330M%>8J#?X\300w>\224|\237>\340Xz>\000\234\322;@t\367>>\273^?\240\313<>\242\357|?\000\025\334=\370\200\\?\300z\236>\244y$?|&\321>@\320!?\016Aa?\320\326D?\236\370}?0\205\375>\360\274s>\034\2467?\240\236V?\214\220N?\336u\r?,\341\333>H\377\207>x\222\244>\322re?P\242\315>\320\345&?\014\3443?\240\231/?^H\010?\202\"*?\320\317.>\366\255L?\276L=?H\3106?T\364}?D\302\206>P\370\025>\260\224f? v\340=\340\340\347>\244\375l?\262W=?`&r>\322\231\032?\250\313\363>\226\000D?\000\264r>\006\007~?\272\003P?\036\365/?\210\003Y>\030\302\376>\332BS?Z,\006?\210\346\276>\316\3630? c\300>\312\215l?\220. ?\354C\236>\330\304\314>\014\0227?\324nO?\200\3029=p\271`?\302WC?\352\221R?\030V\337>@\033M>\0201^> \026\266=P\016o>\250|~>p\n]?\200\322=>\340Y(=\"\356)?\230\267H>\210\\l>`\216Q>`\257\342=\360`\266=\000^\036> Dd?\352$??\300\353\220>X\371\200>\210\000\226>`O\250>Nuy?\320K\264>\370\000\020>4=\221>\304N\236>2H\035?\216\370<?\200~\341=\260\323\342>p7_?P\223]?J\213g?\260\022\225>B\225$?\240=\243=N\245#?\224\212\324>`\036\001>\010@\316>\220v\026>\350\315\227>B\370>?\240\270i>\n6k?\344\376\016?\336\304\013?$\331\003?\320\025\226=\344\345/?\204\213\302>LY\262>\340j\334>\340\355V?\230\034R?\240\024P>P\330\363=X \273>\364\227\311>(\007H>P\223\256>L\304\327>F\356\177?\024\356\245>L)\213>t\365\260>X\312$?<_F?@oM?\270\222C>f) ?\004aI?\020E\024?82\216>&<2?\250Ug?\340\205\177=\310\344G>\340\304W>&\026\n?P)\263=\000Au?\232E\032?\2306}>F\3439?\204\347\334>\260\247\230=,\235\224>\220W@>\330\232\202>\372?u?H\247\257>~\201\025?L\016\177?\220\317\265>d\364\307>\254\361\355>\246oJ?\200W\334>\200\210G<\230T\001>@K\306<\304:\242>\340\236\314=\272\024v?\370\267\374>\250\320e?\360O\025?6>|?\230\263\215>\300\347\275=\200\r\244<\022\257E?X\330S?\350\034[>\360t}>\244:J?\314\"k?\330\347\232>\200E\305>lt7?\020\177\036>\260\nQ?x\222\274>\000\332\023=\214\273o?x\032\253> \305\003>@<\202<P\377g?hw=?0\'S?ni:?\360I\376=j(\022?\374,\261>\000d\367=\002o(?p\263t?\010@1>\032\335<?\250F;>\200X\204<X\314,?\336t}?8m\017>\270R+?\332\276\031?\260\0217?(\366\364>hv\242>\024V)?\300\365\000?X\326F?@\341??D&B?\300\224\201>Z\221\021?\200~\003=\300\275Q=$\017\334>lF\035?\324_\021?\300\tH=\300\032\245=X(Y?\320~e?\320X\353>\002\374A? S\307>\256\025Z?\370\030^?\246( ?\260\312\265=\302\'U?P\237\002>t\215\263>\200\353=<N\0045?\330\253I?\330n\365>\370\355\232>\330\024t?0Qm?\324\001\024?8\363X>\0002n;\350\037\221>\260\304\341=\220\330\351>\322\225d?\010>\277>\240E\032=\"\212\017?\350WG?x\371\332>p\210\177>\330\257\333>\214\340\230>\370i\366>\244\327x?\340\344\221>\314\376P?Z\220R?\020\001d>\240dx> x\"? \206M>\254\241\320>\222:w?J\006\023?@\031B=\024C\305>\260\027\300>\000\326r?\000\334Z<0\307\r>0\377\310=\216h\024?\350\203t>@1==>,1?`3I=\216]\022?x\261(?\000\274}>\3302I>x\375\342>\016\224R?^\330z?\334f\t?\300u\013?<x\022?Br\000?8\317\302>\200\320\361=h\253E?\264\205\241>\372\313\031?\262\007??\216\317M?\330\0005>\300\306\345>\302\275)?\330e\356>X\364\033>$\002\030?\354<\234>\004\365e?\320g\013>,\276\014?\236\td?\\\t\010?\350t\236>\210\275Y?\276\250|? G\356=8\230\330>\310\022\023?@S\307> \247\177=\214f\004?4u\244>\002\021\021?pW\342>\370\236\224>Xj#><\322\272>\320\310=?t\266z?\214n\235>\212\021\036?\204\343\021?\300\267\233=\010?s?X\370\224>\270N%>\210\372\356>\200\356d?\036PH?Jt\\?\0006:>B\274Z?\240s\n?8\366\264> :\004>\206\271)?0!o? e\022=\270\3104?`\024\001=\010\r\352>\364\007\'?\010\242w?\020\212\331>\300\023\225=\370*\'>\336\322}?0P\r>\204rd?\246\230W?h\341U>8\255-?\252\200^?\330\\\323>\246Nz?|r\250>\254\206\357>\260\335n?\244|+?tO\360>|\004\360>\320\324j>\224]\342>\216u\014?R\010]?\326e\025? \007P=\350e\251>\"/\002?\242\003m?\330TE>\370\002\221>0\207\354>x\263\001>\310\023%?\360A\360=\274\321h?\344\212\220>h^\204>B\374`?\310\341\252>\374\243\203>\000\225\353;\010\205B?\252my?\004\255\256>\200\277\242<\270cq>\332\251\031?\000\246);\324\365\345>Dz\217>\200\225f=\020\365\244=,\031\034?\300V\352=@KF?v\265^?\354\205\"?\"\2427?\234\361\276>r\235E?2_^?\274\250o?\332>I?\372\263o?\350\002T>\200$\302<\304yt?\034\032\364>\000a\"?\304\027\353>l\272\014?\364\245P?\300m\001?\350\340b?\220;\'?\010\327\177>\334t\275>\304\226\026?N\277P?\216AM?xD\007>~\345#?\360\276\314>\240\tW=\266\007\034?2,d?\340_\215>\010\272\r?\300\035\312>\356\\\000?\0008L:N\376\035? P,?\340\330F? D\316=p\026\315>\270\034_?Z\271b?\2605\262=\000\000;=P\356\232=\360\253\314=\2246k?\210\257\016>\224r\001?\204 \262>R\276R?\272\304[?\\\r\352>V\322V?\330SJ?>sH?\246\037Q?\022\026\020?\240Y\314>b\257u?n\277\007?\210\310\362>\220\260\203>\274A\305>$sw?\200\354\010?\300\020\002>\224e5?\300\200\345>\360w\004>\204_z?84U>|\263I?\236\300\006?@\264!=\240\265\355>\252B\020?b\006T?\244!\177?\340\221\007>\240\310\321>\260p`>\000\320\3549p\177\337=6\211c?n\220\021?\262jp?\350\306I?$\326A?\370\207\210>pqp?,\243\334>\350V5>F\201 ?\306\233M?8\010\263>\000\244^;Ta\030?\260gG?6\262a? \255\267> \023c=\240\253\310>\000?\327>\214\301\351>\320\312\260=\002~\"?X\206\027>\300\363\177=\000u\223>\304\206\201>\212\226Y?\310\264U?txP?h\357Q?\260\322\203=\340X\246=\030\303\365>PAB>p\212\377=`\242\205>\342;\020?\020\370;>\300\326b>\260\314\365>\370\302\362>\306\372\032?@\231\266>\250\035\301>PK_>B\276d?\304\264Y?n\254\035?\000h\327=\340\017}=6L9?\334\027\"?\334\361\341>\252G ?z\245)?8\200\243>\350T\251>\0320:?\254\017)?0$\031>\360`,? \262\320>0\"\272=\210\254!?\316T%?\376\370,?b\206I?0>A?\332L\025?\214H\010?\260C\030>\010\266\371>\026\367\177?\354\233\273>\334\007\376>\020\\\241>\226BO?\252tX?\302\333Z?t\034\241>\360=&?\200\3242=\320`\263>\306\210\026?\326A\032?\\\005\205>\310\373\206>V\202Q?@\304\'>\236\270E?\320Q\200>\200\211\300>\374}a? \177!?\000\202\023>\252\320;?B\331+?XY\263>\264\326\301>\366Ou?<\247\320>`\366\301=2\224a?\200\325\201<>\\\005?\300 \327<dB\356>\\\364\350><\n\'?\024\325\353>\270\036\257>\300@e=\200W?<\330*Q?8Z\017>$\001\240>\274F\212>\2003\307=^\334\031?\236\345A?X@&>xI\226>\374q\275>p\r\333>|\305j?p\030\245=\022\222O?p\000\247>\326\205\013?\024\346]?\362y\025?\240^\204>\214lJ?P+l>\256\312A?\302-U?\030\313\302>\030\350V>,\277\371>2q\'?`\212_?l3\327>\274)\n?\200j6>\300\230\305>\344,k?\004?\352>T2q?(\356\177>\340\024_?\240\324\026>\302u<?h\007Z>(\333\373>X\233\363>l\360|?\020\301h>Lm\016?\320\367\247>DE\t?\260#\330>J[u?\322C\020?^\020v?\002\301N?\002Kv?\214w ?\250J0? QE?&|%?Xp\225>tI\313>\0223\001?D$%?\240*d=l\275\304>\210\372\360>\274\331\302>\010h0>\332\261K?\034w[?$\371|?$\233\312>h\"\r?\n\315\036?\264\031\325>D\035\324>vY\023?\2023c?\244Gc?\300=\226<\006\376r?\306\306q?\346\371\021?\024\200q?\332c\021?\220\3078>\260zB?tq\245>\340\315n=d\332y?,\250\222>(Wi?0,\024>\322\312\'?\000F\275>\000T\035=\206+;?\360\037\236=H\001\337>\374\345\031?0|2>RE\030?\370\227\034>p\334\263=>\307d?\300a\307<\300\364]>n~\001?\222\014i?\334\'\\?\340\r\n=*P\013?\024\363\201>\206&W?\026\3445?@5\213>(\333\022>\200\rc<p>\263=\250\336Z?rL8?(3\221>\234:\331>\230\007,?2@@?\312\362l?\230\231*>\206a\014?B\243I?\230\375\036?\020\266\001>\254\251y?\240)H>8\355\226>FB-?j8\037?\266K1?^\367L?PS}?(\007\276>\240\277\002=0\374\315=\n6<?\304\260\310>\334\244R?\250\327\361>\336\001Z?z\243o?\320\241.>\324\3414?\224+|?h\262\217>PFW?&7\007?\010\241\000>`\004\256=\304:\270>$\007\\?\022Fm?\030\371\342>\300\353\213<@\253D?\204s.?\224\224\374>\026\2258?\202\266\022?\312^5?\200\263}?\366{\024?\354n\321>\222\326\006?\242\367[?\320\323m>@\001\226>ND\024?\300p\302>@\241\360<\260%:?>,!?p\347\373=\320c0?\350(\341>\232wm?\234`\365>ZOo?\242\252\t?\000\017\342>\240p=?\212N_?Dt\253>\242\233\000?\\\252\336>\250\327L>\274\274\022? \036\021=\020+\377=d\240\215>hL\246>$2\262>\254\222V?\364e+?P\336\336=j\007$?\314\364(?4?\206>\240\021\265>\000Z$>p\342 ?\324;\216>\356\306[?\364o$?t\357=?\370\\\312>N%(?\000\314==r\035Y?T\323\007?\312)=?\334\003\000?(wu>\2608=>\204\257\243>R&Q?D\314\027?ztS?\304\243;?\n\333<?p\246\261=^<r?`A-?6\033u?,~\372>\374#B?\250\372g>\312\331{?\340f\033>l\017\316>\352\322_?x\273\035>\340)b=p\272\024>0R!>\360\n\237=\314\242D?\240\204\370>\000u5>NXT?\310PO?\264\345\316>d2\224>\266J\002?@A\323<H\313\276>,\002\230>\220by>(\216\r>`\362d>d\265\'?\300\307\302<<j5?<w\244>P\335\343=\230\215t?\304\0316?\020,I>\270XT>\362\375I?\226\014\035?\350J\333>\260&\322>(6U>\274\030Q?R\313\031?\002\271\022?@\234\274>\002\036`?>\307B?\210\031\035?@\261c=\200N\036=`O\024?V\254&?p\310\335>\330Q\251>\314\003p?\320K\001? \205|>\2000k=X\317\363>\022\357\033?\300\013[=\210\273/>\020p\230=T\354l?N0U?\364i\033?8\003\334>\026NI?^\320/?X\317\277>\260r\265>\2146k?\240\223A?\0004r>t\317x?@\327\226=n\276W?N\366(?\262H\026?`/\266=\020\235\226=\020J\364>\026\312|?\230\333+?\020I\261=\034)\264>\324\036\362>\006\0229?\324w\332>@\022d>\210Z\373>x\250\023>\022d&?B\302x?\000\330\010=P0A>,w\375>\306\323K?8\301\233>\220\331.?\000\"\\;\320\224^>`9~=\\\365]?\230\322`?\270^\017>\240\022Y?\340j2=\220/w?\242\367d?\322L5?\362\206\032?\250\300m>N\217M?H\035\371>Z\221\027?\03206?nfQ?\254\010&?@\022\236=\200\335o?P\307\316>\002\313B?@\232\272<\024\344\272>\3321N?\324\303\226>\260#\177?\240t\353=\364\254\266>\324\255\334>\344KQ?\306\326k?p\311Z?\016@\032?Xx\232>\264\205L?@\016c?\200\265\246=\254V\207>\340\r]=\220\253\243=\340\306\235=\266\3733?\3109S?\274\373p?\354J\352>\204\310\273>0\032\315>\204\231??\\\224\024?\020\236R?D\226\204>,\226\344>$\370\010?\214\020\211>8\247\343>`\033!=\276\375\033?p,\346=\300k\360<\030\250G?\212\301B?\364\300\223>\3400I? \210\217=Lu\267>\2603&?\024\'??\310\3153>\260\014\010>\020\006<?\000\024\337;@g\205>\3568y?0\036]>8}\036>@\225|=\370\202\t>fJ5?\252l&?H+l>\232*d?\270!\327>h\2208?\200\226\376=\000\300G:\220\360\354>x\247\233>\210(-?\346\271_?@\353\252>\3368<?\214\366\251>\250\252\032?@\307P>\\/\332>\304\363\232>\240\247\204=.o5?\320\224\335=\266\353\037?\324\014\345>\276\356M?\240\262\275=\346\236\'? \3362>\030(>>\020}\251=D\331-?\256\375Y?\014\246\032?\000\373y>$\021/?\244)L?\276\331~?\250\257`>\244\0202?\350, ?\"\264}?p\260\304=\370\027x?\332T@?\244\222\327>h{\235>\\\032\355>\254\273@?\3041\031?\250\002\001?\256\022C?re0?\000\374\361< Hp=\340\036\331>\232\302<?,\377o?\\JA?X\020p?t.\223>\276\271q?\214\324A?&\310D?\2242\277>\000YR?h\235@>\302\007\024?>lq?8\370??Z\0040?H\364y?\322\247H?\340\377\315=\326\263\010?@\300\323=\260\277\035>\364\351\'?\326\330\005?\030\373$>\300\375`?\260\324\251=J.M?\014+\224>\334\006\001?\374 |?z\257\r?\034wZ?`Z\033=\220`\357=\262K\025?\230\023\330>R@\003?pKf?\260\332k?\366\177l?\000(\004:\220\376Q?`\324\001?:\267I?\370\215g?\334\230m?x}\374>\210Uo>\316yw?0\256\362>\300i\303>\300\314\220<\360Q\264>$\275\372>\000`e=\3020@?\264\000C?T.d?\306\036(?\244\007\006?\264Hw?0\352J>\224\021\207>\312U:?\324uV?\004\273\255>\250ny?\200\225\336=\260Sa>H%\023?\230\027\271>\364T\201>\356\037s?\230\343\025>`\357&?d)9?\210`\034?L\350h?\220\031\217>\030\313\345>\362\254\010?PU\204>$\215\325>\330\212\020?\030\200]>^ 8? \336\017?\244\243\261>P\020r>\350\254)?\332\350*?\2244.?t\371\014?\310\007 ?\330\346\357>2\202>?\034:\306>\260J\321>\344t\241>n\331!?\200x\240<z\272\001?2\006i?\340\272K>`\231.>LrV?,\265O?\340\214\017>\236>\010?0\203\230>\202t1?\260\303\034?\252U\002?\010j\322>\366R#? \252\364>\222\324\n?\344V7?~\273H?\240\177\217=\364\335\227>x\036\216>R\367E?`@l=\266Ho?\334\302\252>**\007?b9\032?\254\325\372>4\335D?\262Uz?\256\022W?Z\301W?b\305I?HL >\234\367\007?@\367~=\224#\033?\220\310j>\270\004\321>\200\375\313<\274\020j?\202\220\022?\316\226??\250\026\361>2\357\033?<\265\206>\330\360\270>\260\364\020?h;\177>\020\003o?\230\202\\>\2266\016?H\355\020?0s\233>8RT?\3400R?\030\243:>\200\013`>\340\264\237=\322\341E?P\330\243=\356\272\005?\350\353J?\312r^?61\\?\306\236-?\250\322\337>Hcd?^+\032?D\357(?d8(?&JD?\246\037&?\374:\372>$9\343>\222\272u?^\224\t?lB\260>\334\375\350>\010^\315>\200\253\314>\334\336P?\240Y\344=\000\320\235;\270\225\260>\250\256\302>^\376<?\030\262\370>\304\360\312>\276\365\027?\246\265\\?@\004\303<\274\324\371>t\217N?\214\035\016?\310!\234>\350\332\000> P\264=D\227\274>*56?t\317\347>P\303W>@\312\202=\010z(?\374e\242>|\346\373>\020\010\345=\332_A?\010Ia?\024\3652?\320\275\243=\000K\305>>d\031?\270\344k?\3703E>\264\177\346>\360\334\031>\260\004j>`\252D=\340\220*>\360\244\r>\244\002\024?\324\256\202>\302*\t?0\340u?\370]R?\274v4?\000Xv<\244\304\231>\220;\327>h\240T?H\t/>xLP>X!\201>\334\247\251>x\0240?\240e\220=6)U?\332\215u?\300\223\002=@v\336<\314XT?\306\234\000?,\243\202>\\\360\364>P\031\301>R\0045?\340\034\370=4\'\376>\244\026\023?\340\025\311=\204\221\365>\024=\266>V\"e?(\267@>:\305;?\254\031\001?\304\265\370>~\257Y?\2304\233>\314\262\236>\004U\231>\200oW?\002p\025?\276\363R?p\317\013>\310>e>\260%_>\244g\233>\000\301<?l\330j?`w$=\300\2259>\340\0015?\340\3172?\2662]?\324|Z?dOs?(\371R>\260\303\361>\354]$?^kQ? \020\346>\364\022\204>\n\345m?\3004\000>\272N1?|\340\277>\332\007\026?\360O\316>$6\201>\260)\212>$@U?\002\325z?\030\364c>,\226\243>\370\303\322>\240\024\255>\260\202\211=J-K?\346\220p?\244\322\207>pv\022>\\\350~?\000(G>\220\212\001?\370\272y>\266Jx?,\200\202>x\016\227>\340v\275=\360\263\024?:\332\001?\016C;?\234*O?\316.1?(\3214?\310\002\260>\3741\217>D}x?\200}\266<B`\002?TQL?vo\002?B>`?\260\303\331>,\272<?\200\2153=\234\337\365>\300\264\271=\2201\272>x\301\345>\344\010\t?F\227\007?0\304!?P\327\004?|\3541?J\2075?H\2202>\350\303\013>\222\3158? \2300=D\302\324>\240\006c>d`\213>\216\371\031?P}\236=\360\310\022?\320\341\205=d\352\001?v\004=?X\353\330>\370\252\030>\200qv?\200\037{? \347\026?\200i\265>n\350@?\030\200~>L7\362>4\332\350>\n\247[?\022Rh?\250*\033>\232\"d?.\016\022?\200g\320<\266\'B?\006\316\033?2\0269?\200\021\217=\370\317q>\310l\367>(\211\215>\356\tp?\326\001}?\220$\353=Tz\022?\250@9>t\037\342>\232\003\036?\344\211\323>8t\302>:\021Q?\320WO?\220\243B?\300\203\237=j\277@?\240\0133=8W\000>V\256P?`w\001?H\222k>p\310\361>\360\010\305=b>\003?Bz\006?0?R>$\306\361>`\365\004>\\r\021?\374\371L?\276U\035?\350\220\331>N\363[?4pt?\3169*?\304\t8? \321^>p\224}?\212;=?\206\026n?:Zp?\302\004|?\024N\363>\210-8>n\265P?J8C?\300\241X=\334pP?J\310\'?p\334\277>\234,U?T\352@?\204\346\340>\234\343\247>\314x\336>dz-?\276\320 ? \266D>\264\351L?\274\304\261>L\003\266>Z\3058?\330\364\016>\312\303\177?\374\257L?~\002\021?\\;\316>\324F+?\234\362\017?\n\270\007?8=\265>X\022\003>^\306\000?\200\270\264>\330\313\204>.8~?\214\245\004?\322\360-?~\017)?,@\241>\240p{=8!H?\270\264\332>\264m\350>\000`\204;`^D?\214o^?\356.I?Z\033{?\002\031P?|y\205>\344>\004?\350\256`?\314od?\224\3138?D\025S?\232\351^?\n\351,?\000\222j>\2269G?\320\235\\?\3722D?\214\355\213>\362\264r?\260x\006>H#V>\334\365\034?\340\337\256>\224\233\213>\364\000\017?\324P\214>\350\356\364>\260\311\334>\\\372\027?J\332.?\220\n\360=xx\n?4\265.?\340\350\316>\354.O?0n\255>\274g\274>\010I\022?\000\311\313=\370\357\255>(\212\267>\004\202\213>\2301\001>\030z\027?\"\202k?\200\225\350<\254T\233>Xd1>\000\340\322>^\307o?`\226\234=<)q?\342\3358?\224!\330>\206?M?hX\214>\220\000\234=\210\213\302>\250\302d>\234\243]?,\250\206>\\\321k?\210\240m>H\242\252>\364D\\?4\330\361>:;\026?@fp?\002\037-?\370\210\314>\004l\022?\260<\244>\214\334:?P|g?\350\345\035?\202\255!?\034 U?\224H8?X\370q>\374O??Do\334>6\275|?\270\307\024?\374E\316>\220\023\336>\206\264@?\024\235l?\\\\\035?P%\017>Hc3?\370\227\234>\240\240\336>\3244\261>\\>v?\354\265\206>\ni\002?\342\225\r?\260\312\217=\000kA>8\203\347>\240TI=l1f?\252\2643?\300\205\222<:\033M?\320\330\232>\030\221\217>\224\3246?\000N\222=P\251\n>\204|\232>V.??\2001\250=d\325\303>\344~\250>`\211\017>|\366V?t\341\251>\320\321\t?\000e\037=\370\200w>\374m|?\010I\353>x\252i>\300W\331>P\322->\200\037\253<\026\016<?\340\372\177>\216\034\017?\324\205\224>\374\200\265>\334R}?\366\353\007?jiU?P\036\025>\020\221V?|T\004?\216nK?\242\252#? \373\312=\250\252%?\230Y\305>T\336\377>6\233C?\320\222v?\362\361d?\214\246+? #\014>\346eS?\320\236\307>\250FI>|\306\236>&\343E?b\200i?p\275\224=\000\177\242;x\2505?Fh\030?\346ch?\362\224>?\310\242$?8\007\244>$nQ?\354\360\350>\250\366\245>D\024\353>tr\361>0 \243>\234\r\304>\034=Y?.`c?~\363\017?\274D\317>\3109\373>\200\025s>\004bb?\340\234\020>.QF?~\177_?H\256\376>F\257\016?T\262\332>.P\t?\360d/>\000\375\327;\014\312\347>@\245\210=\200Z\332>\270\307\037>\360\275\353>\310\022J?\254\3626?\340\325\340=T|\016?\210\005,?\234\220\323>\250\231\370>\240&\310>\326~b?N\254??\270o\235>h\020X>\224(]?0n\234=\320+\026>\272\207>?\002&B?\262\027^?x*\315>z\356i?\020\026M?\254\351>?\224N#?\220r\n>\030\347Q>\030\335)>\340\275\014=0\031t?\340@\027=\032\370\031?X#\'>\000\240\353=~y\027?\200\350w?\340\207\327>\020\231\320>X\311.?~\351I?\\\340\262>\020z\201>~Jr?\330\036G?\010\355m?(\247c?\300\354\326>\234#P?N.\033?(\232]?\234\344\360>$*\003?\212\333$?\314P\227>\300\262\356>:\022[?\326G\036?X3\247>\240\033\315>\252^{?\260\362\270>\224~\002?\330;\356>R2Z?\210\330\215>\302\347p?\022@R?L:p? !\343=\034\377U?X\227\341>\352\3429?\200\355@<\324\377\010?\2300d?BFO?\004Q\207>F\310V?\260yF>\000t\002><\333*?\340^%=\364\0275?\210\201]?\032R\037?\272\r}?\014>\275>\306\330o?`v\330=\300]\267=N\303e?\230\032\332>,[9?\204)\240>vC\020?4o\370>&\357(?\354\017\237>(0#? \272o?\000\354j<.\223\177?n\210\006? \257\"?\200=\217>p\331\323=\354\245\272>\230\375e?\2649k?t\241W?\374[\237>\364m6?\272\372-?p\250o?`\r\027>\334\262\250>8\317=>|?\260>p\241\010?(\221\372>$.\323>(\361\232>\200\"\337=8\367>?le\346>\340\022\255>R12?,\021F?\006\333o?\036\311v?h\343[>b\330U?&\323b?\200ZT<\370\2210?\364\3108?`,.>@\0027>\206\341y?\234\371\210>\230Q\020?\300V\017=\372#a?$\033\375>b\354>?\330\031\274>\230\374\033?hbW?\300\020/=$u ?~,J?\0101\007?\320\000\324>\000\025\240>\020\300\247=@\216w=`,|?(\357\351>\026\357P?R\312\000?`\252\203>h\224\225>\352\222~?\230*\216>\334H\253>@\205\230=v\367\017?\226\3173?\332@f?0\232\265>\344+\022?xC^?\276\3461?\\\\>?HE`? o\227=p\351\251>,?\254>\200&\371=<\013@?\354Ni?\276\327n?L]\312>\276\344\016?>\031=?\n\223p?tv}?\360\355,>$\033<?@\217\007>\220Jg>nZ^?B\377G?\300LG?\260\244\004>\370\377\221>\350\354D>\352\340x?\270D\254>`<\256=XN(>@ \263<\304\307R?\240\017\017=\014\030\014?\232\224k?\244\2676?<\330\004?\326\241[?(\215\315>@iz>\2402\306=.\265c? M\022=r%q?\006\2109?,\246\344>\000\201\274<8(\366>\274\220/?\3746V?\220\002\362>\226\027<?\272\2338?\210\236\320>\300\216\225=\374\3330?\340\262b=`-\325=\324\322\363>8Cs>\016\205v?\256\005\031?\360\242~?\304\236|?pd->\2503\214>\000F#=\026\247\017?\374{\240>\320\005\354=\214h\316>\026\r[?\000Nh;p\333y?\304r\361>\010\r&>\302LV?\340\270\033=\020\030r>\260\271\\>\370\005\271>\n\375R?p\007\332>XB\265>\200f\307=\000\327\262<0\022\327=L?\267>H\224;?`\345\243=\000\0166?h\014\322> \216G>T\034\245> \331\302=&B\031?\\L8?J\267\n?P\245\006>\330\364\351>\266\017J?\350\2159?(O\340>\230c\204>\320\005,>p\263K>\014\275\003?,\256\033?\254\203\361>\240gU=\000\227\310;\026C\037?(\347\013>\376\253Y?vN!?h\200<>\332pz?\26092>\264\016(?<\325H?\326\315E?6wK?x#~?\230\346|?\020\345^?\310BM>\310\213\307>\372\013{?\200w{<^\216$?(\340f>\250\251\340>\270\246\334>\346l{?\320y\265=t\005\343>\220\225\367=\244\362j?p\234\001>\324\022\217>dx_?F\264\t?D\000a?\030\333\300>\374\301\365>hY\225>p\224\030?\260|R>\274\343\264>(\264\001?h\220}>\342\331i?@\366\217=\360\373-?l~5?\336 2?\314\232m?\350=0?,\324\321>\260\034\275>&\207%?\210\245\021?@pL?\030S*>P\226I>\216\234 ?\3124V?\274\2279?\316\316+?$\352\355>D6\005?\220|\242=\220\023\323>\"\032\030?\\g\356>\024\n\033? \241.>\354\335I?\000\262\002>\014\\5?\230\302q?\352\004A?\3605\365>\360\231\\> \013|>\340w\010?\374\263\361>\234be?\340\330\351=p83?\364\322P?p\375\177?h\275U>Ns2?\200\2079>\n:a?h\333s>\322%O?\020\203.?\034\306\232>$o;?DB\222>x\333\245>\360\021\">\304#i?\220\265y>H\245R?\2701\321>@\371#?\252\0245?\024\026\274>J_}?L\356J?\330\347j?V\200k?\360\302x?\310F\234>\\\356^?\200\037\310>P3\221=\356\224`?\2564`?\314\221\330>\002\020\026?P\242{>\002\316y?\252\315A?\300Q\251=\352\345)?D\320J?\374\024H?p\037\217=\354\330\212>(\tO> 9M=\026\367j?\236\ty?H4\345>*me?l]#?L\323\021?l\262q?\360\267\020>\204Z\313>@\343\220>N\337s?\236\365 ?02\004?\374\000\373>\300\277t=\034\220\302>\360\207T?\3424g?.\016\024?\n\271,?\230%\204>\000\250\334>\006\010E?PN\245>P&<? \202x=\350C[?\302|p?\2321\022?~a\003?\036\215\017?\010\367\256>\210Ia>\000h\374; )\330>\254o\235>Fk5?\000s\207=\216\335D?\244\334\\?(\n\260>\3501\006>\334\224\207>\300\222t?p\335r>\000y\344=\254)\320> WJ>\202\332B?\376mA?\020/\215>\250\320k>h\373D>\2547\323>\356D\021?\004\242\205>\000\366z>n\024;?^\352l?|p\272>\024o&? Vc?8m\233>\220\250\216>\002/W?\222>\021?(0|?\224\306\254>(\324\266>\322wW?\000<o;\370*4?,Z`?\314\3017?t\215\270>\244n/?\000\370\311:\244\376\242>\204\264\223>\320\370\034?.\032C? \377d=\310qX>\210m-? \336\313=\222\036v?\010\272a>\240\010{?P\335h?\010\352\017?\260-\214=\210\231\357>Xp\204>`\251\223>\214\240\236>\260wv?8\311\035?\274\277\341>Tv\244>\340\301\000?\200^\017=\372a\024?@q\347<\036\320Y?b\364\014?\276\277J?\2244\013? a\265>\210\0060?\344\260\031?\344\374\200>\376}[?h\332\303>Pfp>\010,\203>\374\344X?\242\225\036?\260\373\211>\256\035\013?\220\344p?\374\373\362>~\210#?\004\n\202>\3145\325>\352;%?\210\300\375>\214\'\376>\300,\255<\374\365Y?V\245j?\016Z\017?^,\010?l\222\232>\020\253\361=\250\262=?\200\005\255<\370{Q?\210[B>\340\035a=\034\334\004?\370\257\327>\300\246\301<\260\r\375=p_*?^\3161?\000\241k?T\273\006?\304\344G?@K\225>\354\005\316>p)#>\330\3052>(f\362>@\215\365=h\322d>\020]\233>0\317\r>X\325\254>\254\252*?`P\024?\340\216n>@\316\245=0-q?\310\002}?v\206g?\n\tN?\\\213\267>\300\257j?,\215??\\n\024?6qi?\214\222\016?\264\351\355>\240\327\237=$V\026?|\327e?\220\335\200>,\036+?\226\253w?\210$\317>2xK?F\366/?x\356r?\300\317\346<\350\016\264>T/f?\244^\t?\000\346p?\034\316x?\020\035Q>\014y\270>\242\356B?8\267\337>\340\333\332=X_\241>\300c\222=,\331M?\244\256\213>\206\365}?\366\324K?\200\330\025<\354\354\271>\206!$?\354x\001?\340|@>\202\232\014?0\313\373=\264\254\310>\000\332h?\200\263\212=\020\212\227=\230P[>\244+I?\302+.?\322K,?\270\242\363>L\345\300>\350{\271>\026\0032?,\313>?\270\263R?>U\017?\202/b?\240\357\016>6E\r?\200Q\231>`\310\306>\230\335\220>\002\330B?\030\2344?\246\'a?\200\352\"=\210\206\346>\000/g<\\\264\261>\344\'\260>\000\342\375=~\022\021?\310\252\250>\270\302\006?\200\037\025= \216Y?\000+\306=\224:\272>&=)?D\n\030?h\330z?(\033J>\034\342S?\274\263\213>\232\323R?X>\362>\324*\355>L\374\333>F\3322?\010\2313>@[_=~\005[?\240\3158=\320|f?@\223\325=\344\021s?hX\337>.\024B?\264\350:?\"l@?\270+\206>*\224+?\320v\211>n\343=?\340\201\204>\3007\020>\020!\221=\020=\r?^\367F?\006\241~?\2602F>4\374m?PA\301=*\000\r?\342\257o?\032\n*?,\0254?\200\024\367<2La?~\353|?\224\225E?\3004<>\370}\305>h\376\247>\004\347]?\354\006g?`\034\224=\340\351P?f\273i?4\312!?t6x?\350xz>\350+p>\000\267W>D\325\272>\220\213N>\262!A?\200\366\300=\302\254#?\000\3240;H\230\240>p\247K>v\r\000?`\244\273=&Y??\210/\262>\310\310)?\302=a?H\231\276>\004\030\355>\244\031\275>\032\2223?\220\033\333=8<\252>P\227m?\250M\002>\032\340#?\340\036H>\020S\360>H}>?J\234\t?@hw=\300\013\302=X\347B>\360S\367=\2508*>\030\357p>N\316\023?\234\276X?xf\201>(\301\303>\300o\242<\020\217\221=x\343\250>\240\222\224=p\332\324=\260\336\345=\304\363\323>R\032b?H\243\316>P\034\026>\200\021?>P\213\013?\262(o?\224S[?\320\334r?\020JI>P!\322=\300\3276?\304O7?\200\005\014?h\243\"><\331\332>\026/J?\236\346\000?\300\244\232>lC\362>|\235w?D\226\333>D@\034?\\P\270>$&V?\034\214U?\264I|?\010\224v>6\235C?\304\273\216>\342\264??\240\032\273=8T\261>4\257\035?\230M9?pL+>\000\304J<\014\221\226>\250 \322>\230\275\027>\030O\273>`<\225=\2501*>\020\270\343>$Y>?dJo?t\033\263>\330\355\372>x\250\326>\230v9?P\t\343=\300\nh>\324\033\307>\344*I?\370\000\351>p_9?\274\307\310>\270\243\365>\254Z\330>@\204-=D(u?\330]\240>\340y`?`p\255>&\331o?\214\236\244>\230\272\014>\224\326\365>\200\\\271>z\030\026?\0363Y?\020(\230=\340\201\235=\364\367 ?T(\022?\010\177C>.\202O?\222\270N?\010\374\177>T|R?\000\'\361;\230aT> ;\266=\340@\360>\360\347\213=\202Be?\340\235\222>\014<\007?\036\346S?6\341\006?\264\275\'?\000*\255>b\002z?$\0258?\"@\177? B\301=\000b\261>\306\250\021?\0305\006?\310\230*?\230\177\005?@o\376<\010]\366>\030:c> \221\177?\\\024<?\034!\227>\214\311`?\024z\323>\304\235\212>\232}7?H:\006?\300%A=:b\026?\370))>P4F>\260\271!>\370T\352>\310oR?\376d2?\266\2215?(\355:?\270\276\026> $\031>\272, ?x6\377>`k\203=`\262$>\230\265\003?\344\014\255>t\013\317>R\007\033?\356\275c?`\226\244=DN\352>|\211\230>\212N\021?\014\252\363>>@v?\362\201,?\262\244b?\240\323/?\000^\275=\264_\366>0IH>H\240x>\2022n?(E&?\274\312\r?\276;\023?.\222\'?(\366|?\350xd?\372\277{?\244J\217>\220\264[?\200T(=\226\305n?\236\003;?\000j\203=\300\200\300=\264e\207>\2400\002? /h>\232\307Y?\024lc?DUT?\202\3669?X\323@>\020\033\026>\314-\262>\220_\305>\216\230\030?@\026\217>P\222\314=8\352s?h\025\030>p\363}?\224?\324>@\010\'=\240\\\010>\324\313\202>\350J?>\010\326I>\212\334\024?\000\002\343;(\333\\>\000\250w<\350MH>\200\355G<`\355\231><\346Q?\216ei?P\200\253>2:^?he)?`\242\232>\306h\'?\322\217\034?\2028j?\220\260{?\200:\267<&)#?lb\233>\020\376\260=P(J?\240Wd>D\031h?p\006\220>B\003o?\010\201\222>\000\371`>\212\030)?\2541\354>\372\322\033?n\242N?2\r+?\\\214\374>0\r\206>\300\253\205<\\\205R?@~\270>\300\320\240<\374\020\"?\3726h?\320%6>\216\324>?\0222e?\000<P;\360\343\221=\260\3272?\022\313>?p\027%>\240\325\314>rCO?([4?\244\327\026?@\245{>`\001\301>\320\336\343>\016\\5?\366\343L?L\245]?\230\256\305>4*M?\22081>\000\301A=>D~?\030e.>X\n\325>\030\331\344>\330\203\r?(\205\223>\232\201[?\264B\223>\000\310[:\3400\262>\224\212\200>pP\363=\020\211\361=\014\\\370>P\264\205=\276\360_?D\305\343>\000G\030<\324\317&?\342P7?\300\201\247>\322+\003?\210\007\025>PQ??\364\351+?\300\353%=\246\250Z?\2205\370>Xh9?\000d\220;\030\375\354>\030\357i>,\266I?\346`y?\\\260\003?\222\366n?\330^`>\204\307`?\2123\\?>\247\000?\350\377\263>\316\304$?pT\204=p\315\356>\344\002,?\010Ba?<\204\235>\362\2605?\310C\373>\320\377\330>>~m?j\346&?hw|?0g\332>(\033|>pB^?\360\240\003?`\030\267>\320|`>|\301\030?\000s)?\326\266!?\260_.?\306\272U?@\001.=\350\'W?T\367\374>\320.\354=\240\236G=\360-<?\340}\001?\260\362f?\022\223\001?X\260Y?\260(\340= &H=\356\341a?\000\353\001=P^[?\020\350A>\324\241\007?@*\346=\210\240\217>\244e\372>\300\274\374<\014=\266>\032\037\000?4\270\330>\200{\372>|\277!?\254:\234>8C\352>\340\323\376=\016\024D?\034%\346>\010\273\242>\234\317\207>~\237M?\320\334r>\260\372\014?\324\223R?\2722\023?\034u\230>\344\2175?X\254\302>\004f+?\014\000\306>\304h\215>\310\254$?\370\252#?\014\222\214>\242\316[?\270n<>\340\3660>n\216Y?(\377@>T\036 ?^\204)?\214\274\003?0\216x?\360>\026?@W\330>\320\025\360=\244\307N?\310J\207>\340]p?:\206<?L\035\227>J\332S?\000D6<@\241\221=\342O\026?\3761p?\200\004\217>Ta\372>\340;J?4\220\231>x0K><\r\007?\204\0134?\220\363\213=\230\007\361>F-\022?0O\220>8\252\213>\3704\272>@\204/=(\257~?\220\0134?\022\336I?\274\177\251>^w\023?\000\316?;\324O\337>\326.<?r\367\006?\000\0102>t\030m?\024@v?X\315\363>Tm\025?Hb\010>z\037\005?\272\237|?\330V\332>f\332 ?\374\233\213>\340\3414>8|\345>\370\'\202>8\2457>*$g?Pe\272=D\3064?@\022\032=\264\032+?>\371F?\250\r/>H2\300>\300\017\341> \223\216=\336\312B?\000\223-=\200@:>z\3450?P\275\326=|X\205>v\263.?\200\226D=|\364\026?\020,\253>V\343e?\004v\231>\260\2676>\304\371\025?2\325J?\274)\371>\214\226\247>pE\200=@g|>\364c\'?\340\372\343>8\213??0<\331=D\002P?\270\025\016>`n\004?\370[\026?@\001\257<LM\r?\330\2477?\300\036\320<L\210\216>.\2038?\3604\224=\240\277\240>8]\377>$\212A?\254\314&?\340Z\301>\000\346r?|\313P?\364\2561?\020m\n?\216\2714?4\317;?\312\376v?\370\211\330>P\002\311=\274\272A?\032\003Y?\366\037V?D\361\246>\034Sa?6:$?\304\205\021?\200\214\"?j\351\035?\210\001J?T\033E?\020-\312>\220J%?\350\362%>\340*\356=\210\272\020>\306\330B?\276\264;?`\177m=Xy{>,,r?.\005q?\004N\\?\260\252\260=\000\353\005=\314\321x?h\357M>\260n!>~\364W?P;.>~\370\006?\240tv?H\032\277>\000\020\000;\376|\017?\034\223\206>\000Z\303<\270\005o?@8#=\360\304~?\320}\026>\330\025i?\262\030A?\210K2?@~i=\032\333k?\250ao>X\275\">\300\000M=\002\333\031?\004\270Q?\000}\035=\200\214X?\342tB?\260&\330>\\L\245>\200\253\204>V\020U?\336\200!?\204dV?Fp2?\000\255\273<$T\\?\200G\205>\034\316\310>\244\n\244>\024x\311>\352\370$?\000\2619?\326\024\003?|yv? J\002=\004Z(?$5\356> A\245>\262\201\036?\2609L>\020,/>\354\027O?\020\314(>N\243c?\362\204\003?\340\370\016=\010\016:?\310w.>\004\000\010?\354\243\202>b\301*?\260\003c?@\005K?p\210\013>\310xP>\010\212\345>(\246X?X\344\255>P\031\023?\320j\340>@\r\376>\346\347\025?\014Y\352>.{v?\272\327{?\204\306\345>\000\365\350<\200\216O=H\270\353>\312\316T?\242\216[?\244?Q?\374W\376>\344\312g?\340\261\334>\364g\"?\320\200)?(\225\227>T\320K?\302\362Z?tS\315>\372\215m?\334\216k?H\214g>\314$4?x\257,?\nl\t?\234\210\335>\204\235\222>\330\364\354>\224\240\003?\240\245\001?By.?\242\322;?\000\030\000>\006\333)?`s\203=84\'> K\322>\344u\302>\230\346X?\340\027\376=\252\3073?\260\n~>\202v*?@\014R>,\242\326>J\377V?z\331O?2\233p?|\341\013?\346\355\024?\024F\217>\002\256\020?DK\324>\014q6?\230!\016>\330jA?\356\030\035?6\205$?H\001\231>\324\313\255>\260_\364>\3107\256>(\267\214>\200g4=\310\221\333>\020\310\225>\014\320\352>\334\247\255>4\307\350>\340\263\375=\020@e>\026:\"?\366\2264?\214WB?\226\356S?P\025\360=(\232\017?(_\004?TO\035?\260\203%>\000|\037?0\375{>P\316\025?\010\317~>(\370A>\354cL?\224\036\341>\360\340\217=j\305\031?62\016?\270\241\272>r\215b?\344p\277>\000\253\010?\032hz?\272;c?\346\305\002?H\211l?\304\"\217>^G\014?x,\'?\240\212\031?\020\367\370>\214\016\004?p\335\302=t\227h?\370\035\022>\352\351T?\014\374\'?\220)\346=\356E\037?\0008C<P\217\004>0@\033>\350\330\010>\"{H?\350d\322>\000\300q>\230\341_>`\303:=\270Sn>\000\226 ?PI\376=\260]\013?\006wR? F\277>8h\016?\244Iz?\006\261`?,\302R?\340\346\005?\320/\262>X\222\t>0zG>\326\253x?\300%\347>R\271??\300\256L?dV\313>l:\252>\220~\210=f\004\002?\240\221\013?\254\247\240>\220\255\013>:!=?\216\1779?\214\332G?\330\020\373>Ps@?l\014\251>\206oX?0\023\202>\314\237\255>H\352#>\330\2025?0\261\370>\242Ke?\320P\370=\310\374J>\230bV?\244\265\363>\324#\252>\274\020L?\212\3003?\020\337\256=$p\025?P\270\306>\224\031\214>\34079>x\205F>v&f?\206\356O?<\220~?\220\345\361=\266Ed?\024\314\361>\374\235\231>@z\316<r2{?\016\2237?\220\017\266=d%\265>^\244n?\"\320h?\300\250\221=z\'V?\304\242\242>\234U.? \244t?\250\303C?P\007\325>\360h\305=B\260M?\362\343\026?\026\240\023?\260fq?\020\331\223=d\262)?\256\030H?.\\.?\220W\207>\344v\230>d\372\377>\350\314%>\216\256\026?,\217&?\224=\370>\030o\276>\250d\344>~0T?0\351\256=\304l1?|\205\024?\350\275\010?\300\224\246>\030;\317>\324E[?\340\002\014>4\024G? Q%=\342\373N?`\347\000?\212\345Z?\254\346\234>T\263-?\310\210P>\374\353\375>\324\026m?0\332\007>\260py>XQ>?\016\306\t?@c\212>\034\304\245>\356\242\006?\300u0?\200%\345<\320\206\014>\260\307\264>2\364o?\300Z\210>P#?>\260\201\003>X\367\034?\330\266F>\220\013v>\\d\312>\372\001)?\200\372\200>\200\003\316>\346\363j?\300\"\'?\000\334\375>\372\340O?\260@\236=\350\246->\372\320\026?\302`V?\322\332&?X\3165?\210\3621>p\252\330=\362\365{?\034\260[?\240\342\r>\000I\236;\210\331S?.\2058?\024\354E?\260\271\216=\260\314N?*Sk?\324kc?\226\014\013?N\305*?\242\245;?\264\360\321>\334\352l?|\312\014?\334lj? \213\002>$\265U?\200\217\177?4~\n?0\370X>\224\362\363>\020\371p>\3368<?\020\303\351=\260\376\314=\206We?\0247+?H\267@>\3206}?\000S\367>`\320\243>T;i?\2426i?\334/\t?\214}q?P\231*>\330\277\034>\234|\373>`Vj=\252\303T?D\322\240>xNM?\300\302\230=r\237*?\366\357\027?\234\3410?>7;?J{K?,\212#?P\247\301>,\013\235>F\341t?`\017<=\002\230*?\n}%?,\025\252><\321\333>\000G-<\250j\260>\300\311\034=D\311\257>\014w=?\210\000_>$\273\223>09\020?\224LC?\310\245n>*\376 ?T\2102?~\247C?\332\0003?n]o?\274\002\345>\302\220Q?p]\250>`\327\275>\346(G?\2445\216>\330\006%?\000\276\266<\332[s?\220W_>\274F\260>\010\366W?\270\271\242>\210\250\373>Zdy?`\211@>\252<g?\232\250)?\240\347W>\274O}?\030_E?H8\370>\316\312\n?\250)J?4\332*?\244w\005?d\270\034?N\342\016?\234S\271>\010\353F?\370\007\274>\300,==\274\314\025?\202\317\016?\350\200w?\010\253\003?\010\017\276> rp=\320\366\267>`\276z>\020\302\327>\010 !>\\\230\364>\204\255\'?H/)>\250\007E?\020\325\213>t\240\307>fs\002?@\371\223=\370\363\360>0n)?\302LN?\366\311t?\200\263\006=(i\304>\340\247\376=>\003[?\000\010\353:\272\371#?\320\n\273=\024\266\332>X\020\257>`\321F=\214V\014?T\363\271>p*<?@5\276=\246k:?n\2520?\330\376\345>\226m\024?@\242\322<\200J\203<\264\026\274>pi\360>\200c\274>\250\373\177>\230\024o?\020\201\354=\234b\332>\376\234\'? \252i>\356\236\036?\240\0215>\264\362m?\324x\235>\230|\236>(\362$>.37?\322\371q?~3g?\316*7?\300+\353< \361\251>@\032\313<X\244R>\320\215\030?|@\254>L\240\352>\264B\210>\236\0066?VU-?\236\353\016?\360w\005>\300_\243<\260F\254>\370\253H>\222\\M?\370\325\007?\026\034K?LX\260>\n{d?\300\223\355>\200@\331=\300\373w?\036\263\'?\010&\005>\024\222\362>$\337\365>h\243=?`\031\314=0\244\376=\320\333\314=t\023\034?\340\304\t?\030\'\333>\272\3508?\200\305c=(/\266>\2002J<4\023d?\274\316\211>T\t1?\\\273s?\370\267/?\n\327e?6\320P?\000\311\370>\214\033\006?0\'\312>\350#[>h\237$>\204\361N?\010)5>\214\"\314>\014\2474?\210;=?\234\322 ?\360\253\267>>\233;?&uj?\200\212A?\240\220\323=\334\241\236>V\014N?p\255\312=\250Wx?.\227v?\316<-?\000\333:?r\354@?*\0045?8\353\345>\330\233\306>T\251,?\354\ro?`\363\n?\026\204\026?d-M?\240\243\373>\010\254s?\036SB?\000Ta=\314X\032?\360b\304>\274\334\214>F\3437?.C\035?\260JX?\002\345n?\350\314W?\314\255r?\314L\n?\210%Y?\270\276\377>\210r\327>`\246\\>(\2123?\030\245w>|VG?|\212N?\302\023\003?dr\245>\2407W>x\002\021?\250k\270>\242_\016?\334I\371>\300\375\027?\220\330\271=,\333\261>~IQ?\"\2435?\206\0260?\000\215e=\250\245\252>X\324$?@\212\267<\nnO?\236\317<?\300<m?\212\275:?\360TN?h,D?8\014\314>x\216R>\240\240[>tY\251>(/(?\310\213\215>\364\263\212>pn\031?\260\341d?p\327\252>\356\223c?\332Zh?xBD?\260\372\033?\200\013m? \361%?\300\'W=\242\347\025?\206\312d?0s`?\266\007q?\220\014\336>TO\311>@\277\274>\034R\300>d\345\231>\376\207U?\014\267\225>r\215~?4\333\242>\000:T=@\177\307<\344\200\221>~=n?\350\\U>\234L7?\224e\300>@\021\313>b5A?\376\n\022?\250\244)?p\273\"?h\335\321>\340\216\010?\000\227\254=\250\301C?\300*+>\014=\256>\250\247\245>B\354\033?\224\261\254>`a\227=p\274\026?\204\236\314>P\177\335=\252\346b?(\177R>\224@\205>\310\033\370>\230:\346>\276C\177?\364F3?\342\"z?\246\3316?\262~P?\332\256p?0\254\335>\2026\036?6\212\021?\020Jx>R\231>?\260\333v>\342\010l?\212\312??\020\030\332>\242\324N?H\362d>`o\330>@9\365=\260U\373=l\207U?\270\020\250>\004\376\233>\224or?\354\360!?\352~b?z\232\006?\030\210/> N\r?\234\205\031?@\036\262=\236\361\032?\000PO=Tj\'?\300\031\315>\3109\023?v\366\005?hx\024>\246\334&?\362\014 ?\320\017\243>:\341u?\010\264\036?\346>\017?\360\023=?H\270\373>X\263$>\210\250\212>\336\242\023?\360\376\346=lD\206>b\220j?\336\322\023?\304S\211>Z\267\000?\224\315\321>\260Y6?p\217\020>*\350y?\226\334\022?(\205\">\036\302W?P\337l>*\335h?\330\366\021?\264_\311>^ra?\000l\266=^?\027?\030\022\213>\300w\343<\024\305\327>tl>?\2148\036?\360\241\010>t\270\013?\272B`?d\035H?H\323,>pI\221>\0105\341>\000\020E>\354\024\234>b\215 ?\224VS?\020\250\036?\004a\242>h[n?\300\335i?\010{\322>48\r?8\363\003?NG0?\212x.?\314\247\344>f1\014?tM\033?\252\214\013?xf\243>\360\014\231= \325\265=\310\004c>\2205\277=\326 \177?\204l\010? \365s?P\350\331>N\016e?\264<\307>\210\314_?P1\343>X[\351>\306\236^?\344\2615?\350a\363>\216&{?(\2347>\230B\340>t\354:?\330\364@>\340C\350=\244J\313> w\376>\020>N?\320\301\234=\300P\225<P*\225=\020\324)?n\242\033?`WA?\220!\021?Jc9?\216\344W?\024A\212>|\331X?\324)\225>\302\220\023?\246\343\000?\300\244\245=\334<\263>\224\020T?\026\237{?\240\001\307=\374(K?\276\363q?\212\207m?\010jB>\352\003R?he;?\000[n?\366v\n?\234\226\016?\020P\317>\310\001,>\370\005Y?\320\202#?\300\231F?p+;?8\331\010>\232\371n?\276\342_?p/\202>d\223%?\030Q~?\236\210\022?B\201g?\300\377\224<\210q\016?\254\350\003?\000\270\210< \335]?X\333\t?\024\014\363>\004\343\316>\260W\033?\030\215\362>tb!?\240Ty=\314\337\214>d\274F?^\300\006?(\272~>x7\007?\200\372d=X6(?jJ4?\300\330V>x\310\350>X\341\313>t\323r?&\304#?\016\356@?\300& >\244\t\223>\014yi?\022p\'?F3G?\230\212\226>\022r.?\200\0360>\000O\007>0\025?>8\355]?\320<\003?\250W\"?\010=4>,N\023?\270\014P? \007\236>6\337\025?f\2371?\3001\321<\342\027~?\200\324\007<\266in?\370g\231>8\024q>\320\335\357=\324\334\037?*\200\024?(\255\337>\222\261c?\030`H>\014\356\271> ~\271>X7F>H\331\230>\330\236H>\204;\023?\000\357\306>\"X#?\230<Q?0\250?>v\214\003?\312\326\t?\010\030\333>\276Sh?\270\201\032>\220=k>\000\246\371>b\023N?\020\255S>l\2225?p\027\244>\360(\204=&\021\177?|M\320>\370^\205>\222\tn?pT\264=L6w?p-O>D\276a?\350\032\016?8\237\023?:\325\031?V\270>?N\212w?x\272K?\000k\277><E\342>\212\375\035?\226~b?L\222\230>\354\246\302>\010\274\003?\000R\t=<\324\341>\330.\022>6\273D?\270\t\202>\334c{?\270?\256>0 \212=h0\234>\000\201><\364\311j?P\344c>\352\356%?l\005\010?(^`>\302,y?\220g&?\022\346\003?h\346e>h\307\256>D\360\017?\302Y\t?\340V:?\234\377F?\346\353\\?:\310\021?\300d#?\366\345x?\3001R>0\241\034>xZ\255>x\236\325>@\025\213>\262\000g?\262\360\023?rGm?x\022+>\340$\262=\\\344\312>\350qO?V\375H?\320\242\">\300\215\"?\240h\013=\250\361\026?H\337r>\220\343\005>j\016S?\334\350\312>B\323I?\344\354b?\330!\000>\216w<?0\225h>\230T\260>\310M\254>T\270\334>\330\304\">\364\033\364>\010\222\236> u\316>\000\00068\220|\364>\252\374E?~rq?\010^\202>\246`$?\200N\205>0\023o?6@W?\230*\343>\200\346\250>`z\320>\016II?\000ft=pD\036?\350\375,?\226]0?`\215\254>8\362\343>\302\350z?\312\346N?t\r#?\036;G?X\rB?\276\010V?\254}\r?\300\213Y>v_\000?\330J\374>\322Af?\220\233\031>\344\302\'?@~\204<\\\020\253>\3202[?\034\364\361>Vv\006?\3547C?\202\001d?0\214\230>\020a)>\324\201\306>P\305+>D\017\007?0\336i>\222\362N?\220\022,>\334\302\022?\230\022\224>b\275a?\254\270+?\3406\002>\330\252X>\300\256K=\342\312v?\324@\321>\306\2737?\326\276o?\014kG?\304\252\207>\264\013Z?P\033w>@\212\306=\262G\013?\204\343\311>\336uB?\264\356`?\360F_>T\256\300>\210\250\270>\212Jd?|,n?\000\265A>lM\022?\326\221U?\302\272I?@rk?\"\254H?@\010\'>\254\317\327>\304/\243>\014@\225>\300\235\037>\206\0004?\260\265\331>$\005\036?\2363t?p\307J?\374s\257>\204\255\266>\204\177\024?\220Wh>,CN?\310YL>\276\207\014? \303s=zl\023?h\355\360>JO\030?H_\301>\312\353l?(\3611?v\253)?tPV?PTu>\002\357\005?0)\266>\360\235\314=\320q\352=\000\247\311;P,\035>\200\016\300=`\215\353=\236#\021?P\367c>T\343r?P\004\327=\004DH?\330\017\035?\260Aq?\374\353\211>@\237\250<&qU?\000|\252;,I\254>\214\332\006?\200\000\364>\244\351\323>\310\303P?<\331\026?@\353\277<\310\003F>R\366\014?\220\037\245= \352\030>8\311\306>\3408R=\250\031\205>\200\324{?\310\005\013?\352JT?\310X\240>@\237\222>\324\355\262>\330\301\007?\354\232\323>`\017\034=:\005m?\360SE>@a\301<`=p>\372\3131?\226\'I?\304\270R?\300\034\303>~\234f?@a,>\310<\002?\330i\341>\270\237\264>\234H\023?\254\346\262>p\2327>`\335\370>\000N\377>d@+?\240\372K=l\221\240>\260\360\266>09\212>\316\225\031?LN{?Pp\232=(\262\216>~_r? \204\303=\260\213\314>0\'~?\264!\\?\000\314\327:\270J\317>\300\310\367=t\357\363>\272qO?\3400\014>(*\260>\020\254m>\372\351L?$\336\353>\334\223\262>\246\317\006?\222\256j?\230K\330>\310\225K?@\211:?f\303Z? \211\035=\246c\177?,\337H?\226tN?\360C\306=X\322)> J\261=\032\354C?\340\346\377=P]\244=\272]@?\030s\376>v\202\002?8\235k?\362\'}?\362mA?\326\343\036?\210\271\251>D\337\276>b\343S?\310\312\335>\340E\014>\260)M?@\263\001?\030\334\006>@\217\222<\024&\253>\336\025y?\300?\027?P\004\261>\354]\370>\216\326{? \352\321>\200J\274<>\253L?l\227\313>l\330[?`\363@>4\202\377>\030\216\315>\316\034k?\200\276\242=\220\313\253>r\\\014?8\305\307>\260vp?\310\0108?\336CD?\004w\345> 4#=@\224\325=\316\340o?Xn\002?$>w?\220\000s>`\343>?\300\355\366<\3627\t?L\220\013?x\210@> \266\304>\332\270]?dN\371>\330\312\360>\016(R?\210\271\037>\254}\r? \314M?\210U\240>\000\007\024?`\332i?\024\205\247>L4\372>\364s\270>\010\244\210>\320\236$>B<R?\344\250\000?\266T`?\240\201U?\364?\267>\002\346\032?\260\371\354=:\346,?\246LO?\240.\326=\010G\330>Z\320Y?H\271\035>\000r\001>T\273\362>\260f\203>\340\276\177?\006\304\033?b\247i?h\305c>\030Jv>\350]\224>\220\277X>\232E:?\324@\305>\354\231t?0\350\270=\210\2627>d\0169?\010W\307>\326)e?0\0339>\200n\035?0Y\\?\000\014\254<\200\037S=\220?(?\240\006{>\240Bq>4[\251>\256\316A?0\235F?t\215-?B1\017?\200\336\215=\260\026\002>\354\225+?\260*\227=P\244\001>P\010\353=\022bf?\270\331,>\244C\321>\320$T?*\326K?\000\341H?h+\322>$x\341>\3642\247>\344\356\301>\340\225<?\320r\036>\220\304\323=\302y9?\374\346j?\254\345\360>\236\230C?\322A\035?\356\364q?\270\320}>(*|>\3400\001=\332\234\001?B\351C?t\210w?\354yS?H\330\374>\342\314\t?\002\002d?l\024\353>rBh?\"\327u?\000\233\232=\362\"9?\204\375\341>\260\353->,cR?\200\262K<D61?6?{?\220\034\310=\014P\032?\200\243j=H\361\225>d\256\'?\320\204H>hG\213>\232:i?*\3567?\200v8? \t\206=l\264\217>\254\027o?\350w\366>\244\244\270> \t\374>\200\272?>\260\311t>@a\"?T\002\331>\270w\014? .\r?zQ-?\000\342+=\030,s?\272E\034?8\370e?\340\001\357>x\341\235>vM\010?Z\003\t?\222\344.?\014\331/?x\020\371>\200p%>\220\225S>B\312P?nO+?\370\023)>Z\325H?\010\257\007>\230_\006>&x\013?ln0?@L/=\002\2650?Xu\023>\240\'\306>\336YB?:\002??D\003\003?\300\211\357>\270\007\006>h\0222?6\2761?\314\221\254>h\335x>\000\346<?L\014\256>z\345\026?\312*X?L\325x?\364\005!? \260E?\274\034)?X:\241>\260\372\330=0n#>\254\032\213>\266PX?\030|6>\330\3142>n\247\033?`\327\034=\370F\340>\030\203\214>,\020\311>\002\367N?\270U\'?\340@\034>x\022\025?\370&B?0{q?@\201Y=\330\272y?\000\210f;\206d\032?\224\036\255>\222\3538?|\203\214>\\\024\000?0F4?\352\332\025?\020`$>V\261B?\\\322\354>x\3043>660?\232\007&?\036T\013?\200\257\003>\214\262\220>J\2506?88\225>\350\023\007?\264Cm?6\360\034?`\310\020?\200\352b?\326\365_?\224*u?\300)f?6\275b?\300A\335<0$\243> \\\221=\020\221\366=\374\240\266>\200\307K?z1>?h4n>2\234\"?\310\034\372>R\312m?:\032\n?*Ju?^I8?`\215\023>\266\205\014?\320\002C>\370\310\272>nYR?\270Dp?\004\n\350>\020\326\323>L*\376>\352\317i?\346\317!?,\372\351>\300\302\006=\322\r\016?\340l\025>\010\253\240>\3162u?<i\255>\370\337P>bB.?>h\016?\306\316c?TC\201>\230\342N>`\377\017?\3001\243=\004\n\236>hs\035?\220\331\272=V\205\024?r\366\033?\370\317o?\352\361!?\374\033\267>h\t\270>*q\014?H\271Z?\356XR?\204\201i?\002\366-?\316\352e?\210l\330>ht8>`\263\261>\254\230\221>\030]B?\230\246\322>\370\354r?^\2004?x\324\235>F\262X?~Ff?&\216^?\244\312\210>\346\212(?\370\242\344>\204T3?n\227P?\304A\251>\206R\033?\352\257F?\254Rj?\330\177=>\254\324\362>T\241\216>\222\340\r?p\363\034>\000\214\r?\256\226\031?\312YC?\326\234J?4k\343>4[\353>\304\330v?\004\0207?n\362e?Py\n>\206^b?\254\345\332>\360{\213=\030\\a>\250\225\334>xYR?\320\244P?vWH?,\262\276>\334\321\223>b\3029?\276:Q?^Y@?\220\317\340> \274\375>\340\325\032=\360\242\370=\010\376\310>Pw!?\234Ep?\240\366\000>\304\347\262>\274&\361>(\202\035?*?-?\244\236\322>\340x$>|}\360>\020\211\260>\320\373\231>v>g?\206X\021?\364\374p?r\217s?\216\210S?d\212\342>T\243\304>$\035\261>\260\332\177?\340H,>\312<\'?P\354\274=nn&?\232-e?0 \260>hJd?\360d\273=\364\017\344>\034b\030?:\361g?\200\372\270>\244\006\232>\322X)?\010\267\212>\302\241D?\340\026\001> R\002=\206A6?\234\023q?<_l?0\3369?\216\307\036?\200\343\031=\022\263X?\200\242j>\242c\n?\010.\033?\250\376t>\004d\006?\\C\016?\302^9?\230yX>D\020\200>\3509_? \377\316=P\327\261>\000\361\344>\300HZ=`\327\241=\210B\370>\004\254e?\300\203\274=\220!\357=.\372\007?\360\001\303=\224E\337>\000\2376<\220\251\305>0e\255=Z\277)?\210_\253>p\205\310=\350E]?T0\217>\252\"[?\260qF?2\335l?\250\340\201>$\321\032?Heg?\264\220\313>TQS?`\3262=p\316o>\260\226Q>\026#O? \222(>0\353#?\364\201m?t,\232>\232\0352?\374\247b?\000VE<Z7\003?4Q}?\302\201Z?\242\303H?\344-Z?P\001\351=H\020\261>`\240\024=\010\314\302>\010\024W>HV\331> \347\235=\264\025\266>t\001\363>VE\007?\300_\356<\354\023}? 3\004>\006\366d?\204\263\202>\344\035\026?L\241\217>\300\277\356=\320\220\226=L<\241>J\225%?\246M\035?\3607\230=\330\002\367>\324\351\203>84\225>\236zg?\300\255a?D\177\305>\372\nk?\310\271_>Ll&?\020\204\033?2\0074?X\307\256> \001\036=loC?\234\250\034?>\rK?\354\002F?\250\365\327>\032bQ?0\272\016>\254\260V?\000VL<P\001<>P\016\342>PE!>\234%b?b\374Y?\372\006\016?\020q\004>0\322:?\314\323\201>\374\005b?\020\234\326=t\301\337>\304\227\002?\302\245\004?^\333^? \300\236>\236a\031?\250\213e?\330\300\256>\254\203.?\340\267G>\2604\325>\324\234\331>\200\026\303=\210\032[?P\312\r>\312\262\023?\304\274\032?\206\376\024?\030\313\266>DnZ?\270zA>J2H?\240\323\002>PcW?\370\362\266>\370\030%?\220\351r?D\351\234>\036]4?\240f\350=\250\'k>H\021\235>\200\362:<p\304e>\316\360\006?\222l6?\302\264A?\200\020\323<X;1?\204\033\274>x]\210>`\241\267=\300\234\002?\276^K?\\\352\370>\234\n8?\010\r\222>P\207M>\3502]>\026\236\022?\272\006P?\000\226{=\004\335\361>\036\212(?\270\251\177?\346\2232?pE\214=\256i8?`\237\274>\000aB?\220*\204=\336\376\033?\246\275A?\300\272\232>\230\365_>\330\235J>\374\363\"?b\220\020?0\335\300>tSj?\3623\003?\340{e=`\242\363=\022\212\002?\350\325\202>\336\375e?\274T`?\262\355l? M\343=\360\'\026>\370ox>p\001\206=XD\026>\25079?\324\021\333>\240\037\365>.\267I?@d\264>\340\255\036?\270\212/?\244\273\020?\320E\370=\240\267q=<w\277>\000\210\373>.\351\013?&\244G?\242\017\037?\"\2652?<\262G?\\K\264> \340\000?\264\334f?\304\332\232>\364K\203>n.\016?\254\344\014?\300\377\375=\030`#?\000\r[>\3349\261>\340\275\322>\324\226<?\3408\212>^\377|?\016\035>?X\200\337>\020\310\377=\2125v?\0006\216=x\267L?\314\324\243>\330\"\204>\344\031\010?D\031}?\310\214->H\252|?$\n\240>`1\000?b\376~?\010\006\370>\\c\205>\3461\031?@\265v?<N~?L\\\342>h`\327>b(\\?\\A\267>,H\000?\224\377\277>\000\324v<\210sl>\000\177:?\260\036F>\362\n-?\314Z\224>0F\312>\312H4?P#\004?\342\311D? \n\205=\204\254F?\376\021\000?\270\203m?T\303\265>,H\220>T\231&?\374\273\224>\230\033\013>x\3623>\034k$?\322\345q?\014\323\353>ruO?P\246\276>\216\347@?\334\t\235>x\275\034>\214\r\364>(\036%>:\327C?\000 \\9\240~F>F\237N?\034\322\274>\2049\013?\330-\002>\000\345\027<\314Y\203>\264\204\320>\320@\257>\370\010\222>@\3107=\300\364\337=\340\222A=b\2158?l\343\237>b\367c?Rq\000?\220\274\220=\3502\351>\254\037\325>\242\276j?d\366\213><\257\276>\200\021\357>\200\211\222>\010\251\025?\000l\323;\306\tq?\204,\334>\2003\275=\322\336Q?H=J?DD\345>`\243\027>0\363$>0\315>>,,\277>XIn?@\262p=Dq3?\234\356P?\0207\233=\340\365\346=\2063\006?t\320x?b\006K?\356\323#?\324\341\343>p\202\247>d\315d?\300T\276<\322\376J?@\020B>\026\371\022?\330\254b>@\316G=\260\332\347=J\240$?Dg\204>\330\315\026?2\300h?\260\0179>\354\235m?\242D{?D\226n?\252\006P?\220\200\226>T\307w?\3600\205=`\357F?\240\272\232=\260\023\366=\240\254\035?.\314k?\300\013\024>\000\207\235>\016\272\010?X.v>\372\027W?H\000L>\230\263:?H)\246>\206\262\017?\210A\344>\300\017\337<L\355\337>\232X\024?\202\372\027? V%>\206\324\031?`\233f=\204-j?\314!\267>\250\200W>\322H\006?\004,D?\204^\244>\026\305\t?\300Ok?8N\372>T\265\277>\366\311}?:zN?J60?\350\"\313>\200\314\223=D\356\347>\2305_>\020\240c?\000eJ=\200\371\314=0\245\214>DH\374>\306#;?P\"\302=d\242\311>\360P\223>`\326\327=~\3630?2\3658?\352\357W?\372\236D?6Lp?\330\361~>\020A\325=\nf\031?\260\272}?\230\245\354>\260-\251>\\\232\205>\272\217;?\210\311\331>\342zr?\300\237\374=\036\t\037?N\357\004?~#\025?\244Hd?\010\267\326>\320\202\334>F\233J?\262v+?\360\306\320>\232Ux?\234\271\025?Pf\242=h\247\352>\354\3045?T\365\246>h\215{>\300\344J?6q`?\220\t\304>\370H\355>8\254\214>@Z\035=v\004w?V\205U?\364\253\271>\030\202\232>\2506Z?\234\236\373>\310kc>@\234\222>\310j\260>H\327 >\000L6>,\372\303>\274Q\370>D\324\n?Z<q?\350\371\216>\200\377\315<X5\260>V\277\004?0\274\350=PV\302>\222\230i?\314\t\350>f\0222?L\220\006?\24037=HT%?\336\367J?\020\323\032?\232\277Z?l\022\021?\240\203\027>\332y.?\230B\024>.F\\?$qm?\242Z\025?\344%\313>\010{\220>\334\363\221>\320\221\013? \201\003?8\024\216>\340\003\323>j\263\025?8.\350> \202\035?\230VX>\036\233o?(\002\227>\000`\252<\224\010\356>\030cP?@d??\034\246\300>P%L?\000\364\220:@\316\232><vi?h\211#>8\014\006>4\355\304>\034\311\237>`1P>`k>?\030\222\r>\020\366J?\226\030\033?`jP?D\263\026?\310\004F>\000e\344<\210<\035?\364\221G?l\004\237>N\360\"?\224\215\032?\000>K>\200A\305>\272\347e?l2\356>:r\025?J36?r\343Z?\240\353\027?\360\223M?\304\320f?v\273:?\300\024\203>(P\247>\246\247\030?(\3001?\254\210\226>\274$\n?`\\:=\200U\201=\014&\267>8:\267>\340\313\226>@\244\313=\370Vq?j\336&?~\313$?x\0259>p\330\240>\320>\022>X\335v>0h\223>\260px>\200\006\020?\000\361\034>P\276\312>\372\367q?\320\364O?@\237\264=\020\255v>\200\335[=\360.\373>\200\201W?\324\277\327>\254\207\305>\230\3727?\030\270T?D`g?,\236,?\300\237\356>\000/6?\202\275J?\200\306\200>\372|I?\304\301Y?\220\013=>\320E~?\270\030g?\350\315\177>\310\rc?\020\336\316>H\351\301>\200BI?(a\021?\000\236\001=\330\277$>\352\224\026?\330\006\256>\244xq?\340\311\341=\200M\224>,\271\257>\000J,=f\244\003?@\255\022=\220\221\217>X\274J?\024\021\247>\026\233E?0J\312=\270}\262>\330\255K>R\000\016?2t+?\260\214\330=\214\367-?\000\0277=\314\222\373>\010.?>0m\246=\222\031&?\340\311T?@j\030>~\226v?z\013r?dC\315>\376\345\027?\224\346\033?6D^?P\354]>\310\002^>\354\343\367>\300\226Z?\364V\211>\206\002Z?\"(\000?\340\274\024?\300\r\233<x(\204> R\330>\220\364\240=\316\211e?\020=C?\000\204\214>D\202\242>\200\023\345>\206\316Y?,\3327?\220\371\311=0\243J>\210\370\260>\212\343\034?F!\006?\354\362\377>\020&g?\000\3575?\300.F>l\331\236>\304\317O?\254\202\303>\004\236.?\340,Z>\2109\374>\234\210\341>>\230\017?\362V\'?\360\025\010>L@)?82\210>\210,b>\242s\020?\3405\334=(tx>*i@?\264\020\004?\020\215\014?\320I\350=\276\004L?\3061\"?d\256\226>&\034x?0\350\305=DG\344>\3404\376=\206\305)?\354\022\322>pS\317=\350\244\356>6bZ?@\374e>n\205\003?`\305\202=\26212?L\243V?\220]L>\312\266=?V\347\014?h\324\321>\000\177F>\260\003s>\234\243\306>h\2226?\010d?>D3\334>\000\375G>\210\t\330>p\206\300=\030\344\255>\340\361A>\200\327\340=\202:?? C\r=\264.\372>\024\247s?\n\022\002?\240\032\005>\314\223\215>\366\220h? \350J?`]\317>0\340\301>\024wg?\254V\331>0\002\266>\030\341q?\324\246\226>\300\003??@\222w>P\237_>\214\'\372>\322HG?\200\272\377=21G?\236\362<? \306%=\370\003U>\270\356J?\260\024\330>l\036\332>\210\340\013>\300\354\300=\204._?\202\374+?\022\201x?\320\305\371=p\3551>\210\355\256>\340\027\026>F\212P?|\202\340>\220i\207=\334n\"?\\[\267>\026\034W? \235=>\354\234\232>\330/\'>`\266\245=\300$`=\030Z|>\340\035I=\014(\312>\3765G?\014\017\032?\300\314`>\210\022\212>\016\372C?LW\221>\300~\304>\266\t9?b\276a?\210\214\031>\000\271\'?4#\240>J\022\021?J7l?\354\3366?\336\243z?\000\343\006?\0209c?\300k\333>\022\3723?\314\233N?\334\032\262>0\224\022?\340D\'=\002\002!?\366Mm?H\222\364>\000\360(;\256.:?\020\200+?\020O:>\220\361\327=,\303\242>\024!C?\374\340\n?\364L\017?\030cX>\350\224,>\030\233T>\2706I>\206.r?\326\030<?j\0369?,5\317>\000|&<\nTD?$\333\343>\312\311??\310\300|?\302#N?`\217(>\254m\233>@bj=\200\232\325>>\262V?\240s\332=\206-??T\030\223>0R\337= \326\235=\370\322H?\230\335|>$2\223>\306\3743?\322\227d?P\206\275=\320\3073?(I\203>\350\373\274>\014\363\010?\374\207\340>P\021\014>\010<\371>\230\n\334>\3306\366>\022\213\035?\314{\223>\240\216\261>x\321Q?8\201Q?\254\247a?8\325U?\364\343\016?H\263\026?\020\356\334>\350\'a>r\3120?\210<b>4 \346>`\003\204=n\353`?\310\035`? e\325>\340I.?\320\001\254>X\332\014?\032\210E?\260Dd?\260\257\356>h\330\225>@\026\023=\324\322\024?\240\356\241=\014\037\373>(\263?>\210\330\250>\370\226\236>\020\260Q>\350\354j?\022O\003?\024\340\255>\260\307(>\260\311\024>\340A\216=\242\345#?\200\224\273=\320Oo>V-7?\310\267H>h\253B>\nG\030?\344\237\201>x8\272>\000\242\341<(4P>\222vg?\350\2402?ZUZ?\3204\370>\324\373\013?\354\261E?hUJ>\200;\214=\336*Y?\270U,?\240\213V=\020\"\270>\240\006\007?\340Y\232=:q\007?\360h?>\300\030\r? `~>\314p\305>d\357`?\310\263Y>`U\325>4\306\307>\364|\341>\024{u?\\\373\340>\300\327\002>\352\014C?^a\177?`eE>0\270\222>d\354\273>(\ng?\nQ`?\254\377\245>\300\251\326=8\270\347>p\272\037?,\254m?\\\022j?\270\335w? \017$=H\2060?\200&$?\030\372\212>\\ \351>\3744\036?\226\211L?v\377I?\000\2236=\000{-?\\\220\344>\332\305\023?\222\311&?\336\0178?\344\377\271>\330\345I>*\376\022?(\037S>\346\230[?\2745\033?\304O\036?\244:\033?\340BE=\014H\215>L\347\205>\000\n\004=\360+\355><Q ?\250\231|>\334\021\276>j\244K?\026\263\005?\240\374\037=\270\275o>\212\277d?\226\364G?\260V\367=\220t\254=\352\034\000?\022{\016?*\350\'?\230\223g>\260Ip?\030\264\261>\000[}> J\336=P\321\227>6\310f?.a7?(\251G?\340\337\333=\340J\005>\316\254L?@\271q?\240x\346>\016\317I?8\314\033>\\\346\217>\010\253\010?\340A\261=\220y\202>\310\270p>\230\r\372>@\254\206=|\360\303>\326\373r?\250&\203> #\010?r\225b?h\273\026>`\375\317>X\252A>$#\230>@\006\335=(\277\032?P\367\324=t\312\320>\374\233\364>,\206\270>\250\305X?b\004b?\034\022\202>\274\237\244>\004\334\347>*\0226?pO\223=X\352$><\021_?D.n?\304>\313>`YU>8\005\204>\322t\030?tP\326>\354\350\020?\214\243\331>\360\332&?\022\305G?8ze>\254\241!?\020,1?h\314k?\230s\020?`X;>\216pg?\000Q\216>\016\031#?T\201\324>\000V}?\264\'\221>\246\265_?\336\376{?\200\231\010>\016\n\014?\350\017\002?`\361\247=\274\264X?\020\274\376>\254\021\340>\246\265%?\376\251k?V\n\r?h\265\347>\250\010Y>\000\250\375>\240\375\354=\306\000,?\372*\031?X\277;?\000\315\337=\210\245c>\212\274\r?\304\253&?\232X??\200\276\037?\000d\006?\014\303\245>\364\023g?\364*\346>\370\007\206>\020#y>Z\222;?\362\3021?\210{\240>l\210{?N\0171?`&\200>\320\315j?\220\034\026?\000\257\256=\034<\017?n\325\026?\000a\013<,\214\234>\200\204)=\350\262\227>fHW?z\364z?\374\231\025?R\0104?\334\r1?|sN? \336F>\252\n2?\3308\024>\200\305\322<\310&\344>\204w\260>hn\004?\332\201 ?\210\370o?\022X,?0\003$>\346>A?\000\036\020?\200t\210=^$\027?\"\006i?p\331\370>\210\234R>\240\354>=\256\321q?\310\204\030>\030\301\001?\372\313R?\000\202\340<\272?5?h\031L>\340\356\022=0\311\310=8\311\253>\\`\'?\214\360\021?\312\252[?\230;\366>d\033V?\010\337\364>\336\235-?\216\257g?\000\375b<\270e\'?\250\373\203>\320<\364>6\004V?4\374|?\246\337y?\274\023\260>>u#?\220\316x?\324\255;?\354\203\260>^\004V?\n\217\014?@\361\230>0\025\227>D\351a?\370\t*?`tp=\364\026<?Vt\025?\362 {?P43?\024vi?\340\0321=xN\364>\300\272\337=j\337\005?\"\n3?4.@?4\264\256>\326\\v?\300\247\205< \371\027= \213X>&Y\036?HU*>\336*\'?\030\220m?\326\230\023?pP\t>\220P-?\204\201y?\276C1?\352\345C?\364\3458?(a\021?\352-S?\022\232O?\322\212\021?\332\355e?\020f\233>v\332??&\316r?(\362E?\224\232\026?\320\261\207=\2664e?\020BJ>x\003\277>\300$\226>P\347%>4K>?\342\203\004?\274\367)?lF\355>\330\253r>\230.Z>\372]\021?\304\3226?\216e=?rB\005?.\027`? [ >Dx\235>\270\324\333>\340\377i>\360\201*?\360k\344=Tz\007?hF0> \260B>L\266\010?\030$\024>\330\340j?\242\266y?\214\367\326>p\325\010?\006\335v?\320\252\014>\360\203\030?\300j\207>\200\'i>J\254J?\372pA?\026\213\030?\330}\203>\246\361g?r\034p?\2707)>@2\345<Pb\261>\200\341\320=\212^j?\200\316k<\242\037t?\010\355h>\364D\240>:D<?\320\n\023>\300F\245<\360\3634?De\370>0Az>\260\2559?8\316??\260H\214=\2661\025?\342\326\r?z\342x?\3500\246>\020\2675>\270\317\t>\3221\\?\260\304\010?\340\033K>\304\275x?\342\010Y?\334\253\231>h\212\360>\240\220\307>\000\014|<\000dT?\270\266A?B\274\033?D6R?\010\327Y>\250 \022?\302\231I?\350\2070?DL{?\260s\263=\340\370[?R\037\037?\342\205\027?\004\005h?\250T`>2S\010?\200\327p=\020~m?\314\327\346>\210^B>6ek?\342\224^?\320\331->\364{3?\250\276z>\204\3043?\236\244\"?\234r\321>\350\271~>0\314v>\240\333\r?\020\326\323=\030\316\263>p{3>X\266M>\260}\353>\036S7?\200\205A?0\252\345>X\362\353>\346lC?\260\177\332>\274E\002?\220\035\320=\214\306L?\350\t\254>\220\237\036?\360\301\257>4\373\377>\264T??\246\363\001?z\250\033?\274\210X?\322\320\003?\354\362\027?0\031\362=<g\277>\200\301\233<V\334\\?@\356^=\200g\211>\300p\315<2\2152?\200\177g>\240\256`=\200p\000=V}k?\334\r\317>(9(?\204\237l?\350D\222>\000\335n>\326#??Xt\361>\014\r8?`\372Z>\220\225\254= \013\">\314\023\252>\204\215/?p\332v>`\353\315=\256\250!?\252bu?\204\034|?\200J\332=\270?\024>\020,(?\220\327\307=\252\231}?\000H\377>\366a(?\272\240H?\330\177\024>\300\331f=\022[\016?\344\240r?\000\365O?\320\215\324>\200\275F?\000ah?\240\220B>\240n\241>\354\373w?\032\335#?\364\373t?\220ri?\3044\024?\312\353d?\374\335z?\022$z?H2\314>p\261u>\200\344j?\370rk?\324\r\200>\330\3746?\\\302\212>h\310\251>\n\260I?`\210\241=\344B\307>\000\3532>|\t*?\004j4?X6T>LU-?\254)j?$\'R?\242tB?\200\235\216<\336\035\030?0\335\316>\320\235\276>\314\236u?\nb\017?\302\217C?\300/\362=\026\007\023?lG7? 