node {
  name: "in_0"
  op: "Const"
  attr {
    key: "dtype"
    value {
      type: DT_DOUBLE
    }
  }
  attr {
    key: "value"
    value {
      tensor {
        dtype: DT_DOUBLE
        tensor_shape {
          dim {
            size: 2
          }
          dim {
            size: 3
          }
          dim {
            size: 12
          }
        }
        tensor_content: "0m4\347\376y\315?\344\033;\004\236p\351?\026..t\357%\352? \306G>\322\023\247?\230\303\330E)\235\327?,5\313k\013\350\345?\334m\034\311\255s\321?0\024\236\222\260\272\321?@\321\340\331\240{\316?v|\234\234\223o\356?\244&\\\214\314W\332?\270\376rL\357\224\331?\030\216\353R\253\023\332?*A<\365%\024\344?h\014\326CH\250\351?0\320Y{\256\\\261?\366\226\304\200\016\350\343?@cr\031B\026\323?\300Q\006<\213\200\303?\014\377 \310\035\271\320?\300\325\277\177]\302\347?\270\337\237\302\321P\343?\256L\224~H]\351?0\243.\031\266\256\342?\200B\250\257\316j\301?\304\372\266\312\352\225\332?D\320\255\371\013B\327?\364\025&\270p\360\327?H:\241v\n\272\312?0-} \201!\323?l2\013\247;|\331?\320r}\'\013\372\341?\006u\364aS@\347?P6<\211\270\337\273?\024\340\006`\267\262\322?t\222JV\310\'\325?\264/\177\232\"]\322?\242\037L\006\215=\345?\270\376\302\274\332\310\323?R\2100\375\212\314\355?\300;\026W\321\210\230?\260?t#\314\203\322?\366=D:{\005\342?p_\013\2335\315\356?\344U\370\034\372\317\332? l1N\344\252\330?\354\327\003\223\206\215\321?^C\326M\353\234\345?\326\333u\025\2449\354?\264\000\334Z\177\326\353?\244\341\253\326!\272\345?\320\336\312`\255\005\311?\244u\220o\266\033\324?V\010\201\267\276\271\351?$\253\324_o3\356?\264:\260\357i\003\335?\300[\'7L8\256?02UU\205\214\265?\240\255\276\263r+\257? \303\207\022\3446\334?\220\032\360l\364(\324?\030\374\036.\217W\355?\340!;ay\034\257?\312\255)\371\227\333\346?F\233`e\300\335\343?\264>\261\354\324\345\331?\212v\025\026\265o\342?|\036\036F\364}\330?\034\203\363\362\364\204\322?\000:\260e\"\372\230?F\316\345\330\2577\343?\356uN6<b\355?"
      }
    }
  }
}
node {
  name: "in_0/read"
  op: "Identity"
  input: "in_0"
  attr {
    key: "T"
    value {
      type: DT_DOUBLE
    }
  }
  attr {
    key: "_class"
    value {
      list {
        s: "loc:@in_0"
      }
    }
  }
}
node {
  name: "in_1"
  op: "Const"
  attr {
    key: "dtype"
    value {
      type: DT_DOUBLE
    }
  }
  attr {
    key: "value"
    value {
      tensor {
        dtype: DT_DOUBLE
        tensor_shape {
          dim {
            size: 2
          }
          dim {
            size: 3
          }
          dim {
            size: 12
          }
        }
        tensor_content: "\010Z\266\327\037@\306?l\331{-\346\013\354?\000\215j\032X\302\302?\220n\013\207~\272\311?\300w(S\352\206\265?\322*\334\341p\002\343?\260\371\311u\303F\323?\2707\267\t\202\273\346?t7\316\031\264\025\344?\262\205\207\004\312R\345?d\236\002\233+k\345?`\327\233(\366\331\310?z0)\266]\016\353?\306\006)\255\306\032\353?@\303\335\335\242\024\321?&\265\222\272^]\343?\314j\365\344\304\214\334?\002\333\364B\365\'\351?\372=W\347u\231\340?\230\324\037{W\232\353?\374E\340\347\350\212\344?\254Y\032_\225\002\353?\034\0102\t\353\\\344?\240~P\361\367\224\311?x \311\355e\226\315?$iJ\317\323d\347?p\023Q\022\261\377\343?\214\224 \223\023\220\351?\360(\311\002\216\310\272?\3267r{H\334\355?\020\365R\004\366K\333?P\204\006\'\331\217\301?\212\22762\367\005\346?\230\022\251\206Su\341?\254\274\344\rk\014\333? (\243j\003\365\343?t?\306\264.c\332?@U\331\335\361\232\320?,\265\264\372GS\345?\300BL\255x\366\255?\016\320~\326\022\317\341?\210R\234\303\370\t\321?\340\214\215$\370\353\277?\240{\000\205\304 \254?\362h00\257\214\350?\244e\237\322\024\027\347?\350\336.\241_\364\301?\224/\024\333\274\371\330?\204k\274?.}\327?\334U\332\'Q\033\335?\320\342\273\343\234\000\305?*\311\302:\006/\346? \234\024C|a\255?\202\372\310\254\266_\356?\376V\024FW\264\340?\224\247^y\302K\343?x\322,\243OU\306?\250z\313\014\\a\307?\200\265B\002\201\264\325?\200\t\236\236\263I\333?\212\240 \352\\\211\352?\330\306B\237 \354\317?\360r\363\360i\r\334?(,GtV\261\350?\364\353\253A\240\366\324?\314\032\246s\363@\327?:\010\364\242l\267\350?X\373\331\360\215\372\341?\006tS\205\n\254\355?`\324\350$\243\237\334?8{\371\331\366l\312?*0\244\3252\320\355?"
      }
    }
  }
}
node {
  name: "in_1/read"
  op: "Identity"
  input: "in_1"
  attr {
    key: "T"
    value {
      type: DT_DOUBLE
    }
  }
  attr {
    key: "_class"
    value {
      list {
        s: "loc:@in_1"
      }
    }
  }
}
node {
  name: "Maximum"
  op: "Maximum"
  input: "in_0/read"
  input: "in_1/read"
  attr {
    key: "T"
    value {
      type: DT_DOUBLE
    }
  }
}
library {
}
